[CLS]
[MASK]
[PAD]
[SEP]
[UNK]
!
"
#
##!
##"
###
##$
##%
##&
##'
##(
##)
##*
##+
##,
##-
##.
##/
##0
##1
##10
##100
##11
##12
##13
##14
##15
##16
##17
##18
##19
##2
##20
##21
##22
##23
##24
##25
##26
##27
##28
##29
##3
##30
##31
##32
##33
##34
##35
##36
##37
##38
##39
##4
##40
##41
##42
##43
##44
##45
##46
##47
##48
##49
##5
##50
##51
##52
##53
##54
##55
##56
##57
##58
##59
##6
##60
##61
##62
##63
##64
##65
##66
##67
##68
##69
##7
##70
##71
##72
##73
##74
##75
##76
##77
##78
##79
##8
##80
##81
##82
##83
##84
##85
##86
##87
##88
##89
##9
##90
##91
##92
##93
##94
##95
##96
##97
##98
##99
##:
##;
##<
##=
##>
##?
##@
##[
##\
##]
##^
##_
##`
##a
##aa
##aal
##aar
##aart
##aat
##ab
##aba
##abbau
##abei
##abel
##abell
##abend
##abent
##abet
##abeth
##abgab
##abgeord
##abgeordnet
##abhäng
##abi
##abil
##abilit
##abilitation
##ability
##abilität
##abin
##abis
##abkomm
##abl
##ablauf
##ablo
##abo
##abon
##abor
##abr
##abrechn
##abrik
##abrück
##abschluss
##abschnitt
##absicht
##abstimm
##abt
##abteil
##abu
##abwehr
##abwäg
##aby
##abzug
##ac
##aca
##ach
##achbar
##achel
##achim
##aching
##achrich
##achs
##acht
##achtal
##achteil
##achtet
##achtlich
##achtung
##achung
##achus
##achusett
##achv
##aci
##acional
##ack
##ackt
##aco
##act
##action
##acy
##ad
##ada
##adbach
##add
##adel
##adeln
##adelphia
##ademi
##adet
##adi
##adin
##ading
##adion
##ado
##ador
##ados
##adr
##adrat
##adress
##adt
##adurch
##ady
##ae
##ael
##aen
##aer
##af
##afa
##afel
##afeln
##aff
##affel
##affeln
##afft
##affung
##affär
##afr
##afrika
##afrikan
##aft
##afür
##ag
##aga
##agan
##agd
##agement
##agent
##agentur
##ager
##agert
##agi
##agin
##aging
##agli
##agn
##agnet
##agno
##agnos
##agnost
##ago
##agog
##agon
##agra
##agramm
##agt
##agu
##agua
##agung
##ah
##aha
##ahc
##ahl
##ahll
##ahm
##ahn
##ahnsinn
##ahnt
##ahnung
##ahr
##ahrt
##ahrung
##aht
##ahu
##ai
##aida
##aii
##aik
##ail
##ailabl
##aill
##aillon
##ain
##ainment
##air
##ais
##aison
##aiss
##aissanc
##aj
##ak
##aka
##akademi
##akel
##akesp
##aket
##akfast
##aki
##ako
##akon
##akt
##akteur
##akti
##aktion
##aktiv
##aktivität
##aktor
##aku
##akul
##akult
##akuum
##al
##ala
##alais
##aland
##alb
##album
##ald
##aldat
##aldirektor
##aldo
##alena
##alend
##alent
##aleri
##alerweis
##alex
##ali
##alia
##alif
##alifikation
##alifiz
##alifor
##aliforn
##aliforni
##alifornia
##alin
##alis
##alisation
##alisch
##alisi
##alisier
##alisiert
##alismus
##alit
##alition
##ality
##alität
##alk
##all
##alla
##allas
##alle
##allel
##alleri
##allery
##alli
##allist
##allo
##allt
##ally
##alm
##alo
##alog
##alom
##alon
##alp
##alscienc
##also
##alsozial
##alt
##altar
##altet
##alth
##altitel
##altung
##alus
##aly
##alys
##alz
##am
##ama
##aman
##amann
##amar
##amarill
##amarilla
##amarillas
##amarillasaust
##amarillasl
##amarillaslatinas
##amarillass
##amarillastexas
##amas
##amb
##ameist
##ament
##amento
##amera
##amerika
##amerikan
##amerikas
##amet
##ami
##amik
##amil
##amin
##aming
##amm
##ammelt
##amment
##ammlung
##ammt
##amo
##amp
##ampa
##ampagn
##ampf
##ampion
##amt
##an
##ana
##anach
##anad
##anal
##analy
##analys
##analyt
##anas
##anb
##anbau
##anbiet
##anbul
##anc
##anch
##ancial
##ancouv
##ancy
##and
##anda
##andal
##andel
##andeln
##andelt
##andet
##andeur
##andi
##andid
##andin
##andina
##andinav
##andlung
##ando
##andro
##andt
##anfall
##anfang
##anforder
##ang
##anga
##angab
##angeb
##angebot
##angehör
##angel
##angeleg
##ango
##angriff
##angt
##anhalt
##ani
##ania
##anisch
##anj
##ank
##anka
##ankt
##ankung
##anlag
##anlass
##anleg
##anmeld
##ann
##anna
##annel
##anni
##annt
##anny
##ano
##anon
##ansa
##ansas
##anschau
##anschlag
##anschluss
##ansicht
##ansion
##anspruch
##anspruchnahm
##ansprüch
##anstalt
##anstieg
##ant
##anta
##antas
##antasi
##antast
##anteil
##anti
##antik
##antin
##antisch
##antit
##anto
##anton
##antrag
##antrieb
##antritt
##anträg
##antwor
##antwort
##anu
##anuar
##anuel
##anus
##anwalt
##any
##anz
##anzeig
##anzi
##anzig
##anzl
##anzlei
##anzt
##anzös
##ao
##ap
##apan
##apel
##apell
##apeu
##aph
##api
##apital
##apley
##apleyad
##apo
##apolis
##apost
##app
##april
##aps
##apt
##apur
##aqu
##ar
##ara
##arab
##arabi
##arakt
##arat
##arb
##arbeit
##arbeitet
##arbon
##arburg
##arc
##arch
##archi
##archit
##architektur
##archiv
##arctic
##ard
##arda
##ardi
##ardin
##ardo
##ardt
##areal
##arena
##arett
##arf
##arg
##ari
##aria
##arian
##ariat
##arif
##arifvertrag
##arin
##arina
##aring
##ario
##aris
##arisch
##arium
##arius
##ark
##arkt
##arktisch
##arl
##arlament
##arleh
##arm
##arma
##arme
##armon
##armoni
##arn
##arning
##arnt
##aro
##arr
##arri
##arrt
##arry
##art
##arta
##artell
##artet
##artett
##arth
##arti
##articl
##artig
##artikel
##artment
##artz
##ary
##arz
##arzt
##as
##asa
##asar
##asc
##asch
##asd
##asern
##ash
##ashi
##ashion
##ashog
##asi
##asiat
##asil
##asing
##asis
##ask
##aska
##asmus
##asn
##ason
##asp
##aspiel
##ass
##assau
##assel
##assistent
##assnahm
##asso
##asst
##assung
##ast
##astet
##astian
##astik
##astrop
##astroph
##astung
##asy
##aszin
##at
##ata
##ataillon
##atal
##atar
##atch
##ated
##ateg
##ategor
##ategori
##ategory
##atein
##atell
##atemal
##ateri
##aterial
##ateriali
##ateur
##ath
##athan
##athemat
##athl
##athlet
##athlon
##athol
##athon
##ati
##atibel
##atik
##atin
##atinas
##ating
##atio
##ation
##ational
##atis
##atisch
##ativ
##ativität
##atlan
##atlant
##ato
##atom
##aton
##ator
##atori
##atorin
##atorium
##atory
##atra
##atsch
##atsäch
##att
##atta
##attet
##attform
##attl
##attra
##attung
##atur
##atus
##atz
##atür
##au
##aub
##aubt
##auch
##aud
##auert
##auf
##aufbau
##aufbewahr
##aufent
##aufenthalt
##auffass
##aufgab
##aufgang
##aufklär
##aufkomm
##auflag
##aufnahm
##aufruf
##aufsicht
##auft
##auftrag
##auftragt
##auftritt
##aufträg
##aufwand
##aufwend
##aug
##august
##aul
##ault
##aum
##aun
##aunt
##aup
##aupt
##auptsäch
##aur
##aurant
##aurus
##aus
##ausbau
##ausbild
##ausch
##auschal
##auscht
##ausend
##ausfall
##ausgab
##ausgleich
##auso
##auspiel
##ausrüst
##auss
##aussch
##ausschluss
##ausschuss
##aussicht
##ausstatt
##ausstell
##ausstrahl
##aust
##austausch
##auswahl
##ausweich
##ausweichsitz
##ausweis
##ausüb
##aut
##autif
##autiful
##auto
##autobahn
##automat
##autor
##autos
##aux
##av
##ava
##avg
##avi
##avw
##avy
##aw
##awa
##ax
##ay
##aya
##ayr
##ays
##aysia
##az
##azar
##azi
##azif
##azin
##azit
##azität
##azr
##azz
##azzo
##b
##ba
##bab
##bach
##back
##bad
##bag
##bahn
##bahnhof
##baidsch
##bal
##bald
##balk
##ball
##ban
##band
##bank
##bann
##bar
##bard
##barg
##bargain
##barkeit
##bart
##barung
##bas
##basis
##bass
##bast
##bat
##bau
##bauf
##baum
##baumeist
##baur
##baus
##baut
##bauung
##bauweis
##bay
##bayer
##bb
##bc
##bchen
##bd
##be
##bea
##beam
##beamt
##bearbeit
##beauftrag
##beauftragt
##bebau
##bec
##bech
##beck
##bed
##bedarf
##bedi
##beding
##bedingt
##bedro
##bedür
##bedürf
##bedürfnis
##bedürft
##bee
##beer
##bef
##befang
##befehl
##befehlshab
##befrei
##befreiung
##befug
##befugnis
##beg
##begehr
##beginn
##begl
##begr
##begriff
##begriffsklär
##begründ
##beh
##behalt
##behandl
##behind
##behindert
##behr
##behält
##behör
##behörd
##bei
##beid
##beihilf
##bein
##beirat
##beit
##beitrag
##beiträg
##bek
##bekomm
##bekämpf
##bel
##belast
##belehr
##bell
##beln
##belt
##bem
##ben
##bend
##benenn
##benz
##beob
##ber
##berat
##berech
##berechn
##berecht
##berechtigt
##bereich
##bereit
##bereitet
##bereitschaft
##berg
##bergbau
##bergt
##bericht
##berlin
##bern
##bert
##beruf
##bes
##besch
##bescheid
##beschein
##beschluss
##beschreib
##beschwerd
##beschäft
##besetz
##besitz
##besond
##bess
##besser
##best
##bestand
##bestimm
##beständ
##besuch
##bet
##beteil
##beteiligt
##beton
##betracht
##betrag
##betreib
##betreu
##betrieb
##betriebnahm
##beträg
##bett
##beu
##beurteil
##beutel
##bevollmächt
##bevollmächtigt
##bevölker
##bew
##bewahr
##beweg
##beweis
##bewerb
##bewert
##bewohn
##bewusst
##bewusstsein
##bey
##bezeichn
##bezieh
##bezir
##bezirk
##bezog
##bezug
##bf
##bfh
##bg
##bgb
##bgbl
##bgh
##bh
##bi
##bia
##biblio
##bibliotec
##bibliothek
##bie
##bieg
##bier
##biert
##biet
##bietet
##big
##bil
##bilanz
##bild
##bildung
##bill
##bin
##bind
##bindung
##bing
##bio
##bir
##bis
##bisch
##bischof
##biss
##bit
##bl
##black
##blank
##blatt
##blau
##ble
##blei
##bleib
##blem
##blen
##blenz
##bler
##bles
##bli
##blick
##blig
##blin
##bling
##blio
##blioth
##bliothek
##block
##blog
##blogigo
##blogspot
##blum
##blut
##blätt
##blö
##blü
##bm
##bn
##bnis
##bo
##board
##bock
##bod
##boe
##bog
##bohr
##bol
##bold
##bom
##bomb
##bon
##boo
##book
##boot
##bor
##borg
##born
##bot
##bour
##bourg
##bourn
##box
##boy
##bp
##br
##bra
##brach
##bracht
##bran
##branch
##brand
##brandenburg
##brauch
##braun
##bre
##brech
##breit
##breitung
##brem
##brems
##brenn
##brett
##bri
##bricht
##brid
##brie
##brief
##brig
##bring
##bringt
##bringung
##brit
##britann
##bro
##broch
##bron
##bronn
##brot
##bruch
##bruck
##brud
##brun
##brunn
##bry
##brü
##brüch
##brück
##bs
##bsg
##bst
##bstoff
##bt
##bte
##bten
##btt
##bu
##buch
##bud
##bul
##bund
##bundesliga
##bundesstaat
##bundestag
##bung
##bur
##burg
##burgh
##burn
##bury
##bus
##busch
##buss
##bv
##bver
##bverfg
##bverwg
##bw
##by
##bys
##bzw
##bä
##bär
##bäum
##bö
##böd
##bög
##bör
##börs
##bü
##büch
##bühn
##bün
##bür
##bürg
##bürgermeist
##büro
##büros
##büt
##büttel
##c
##ca
##cach
##cal
##cam
##camp
##can
##cap
##car
##card
##cas
##cast
##cat
##cation
##cb
##cc
##cd
##cdu
##ce
##ceae
##cean
##ced
##ceh
##cei
##cel
##cell
##celona
##cen
##cent
##cep
##cept
##cer
##ces
##cess
##cest
##cf
##cfs
##cg
##ch
##cha
##chan
##chang
##char
##charakt
##chart
##che
##check
##chef
##chefin
##chell
##chem
##chen
##cher
##chern
##ches
##chest
##chez
##chf
##chi
##chin
##ching
##chlor
##chmal
##chn
##chner
##chnik
##cho
##chor
##chow
##chr
##christ
##chron
##chs
##chsen
##chst
##cht
##chte
##chten
##chter
##chtern
##chtet
##chts
##ci
##cia
##cial
##cienc
##cih
##cil
##cin
##cing
##cio
##cip
##cis
##cit
##city
##cius
##ck
##cke
##ckel
##cken
##cker
##ckes
##cket
##ckey
##cki
##cks
##ckt
##ckte
##ckten
##ckung
##cl
##cla
##class
##clau
##cle
##cles
##club
##cm
##cn
##cnh
##co
##coach
##cock
##cod
##col
##coln
##color
##com
##comm
##commodation
##comp
##comput
##con
##cond
##condado
##conom
##consin
##consult
##consultant
##cont
##content
##cor
##cord
##cos
##couch
##count
##cour
##court
##cov
##cr
##craw
##cre
##cret
##cs
##css
##csu
##ct
##ctic
##cticut
##ction
##ctor
##cts
##ctu
##ctually
##ctur
##cu
##cuador
##cuba
##cul
##cup
##cur
##cus
##cv
##cw
##cy
##cyc
##cycl
##cycling
##cyclop
##cyclopedia
##cz
##d
##da
##dac
##dach
##dacht
##dal
##dam
##damm
##dampf
##dan
##dann
##dap
##dar
##darf
##darstell
##das
##dass
##dat
##data
##datei
##dateiend
##datum
##dau
##dav
##day
##dazu
##db
##dc
##dd
##de
##deb
##debatt
##debüt
##deck
##deckt
##deckung
##ded
##dee
##deen
##def
##default
##defin
##defiz
##defizit
##dehn
##dehnung
##dek
##del
##delivery
##dell
##deln
##delt
##dem
##demann
##demokrat
##den
##denberg
##denburg
##denk
##denklich
##denkm
##denkmal
##denkmäl
##denkt
##dent
##dentif
##denz
##dep
##depend
##dependent
##der
##dern
##dert
##derung
##des
##design
##dess
##dest
##det
##deu
##deut
##deutet
##deutsch
##deutschland
##dex
##dez
##dezemb
##df
##dg
##dh
##di
##dia
##dib
##dicht
##dictionary
##die
##dien
##dienstleist
##dient
##dies
##dif
##differenz
##difo
##dig
##diglich
##digt
##digung
##dik
##dim
##dimension
##din
##dinand
##ding
##dingt
##dingung
##dio
##dir
##direktion
##direktor
##dis
##disch
##disk
##dist
##disziplin
##dition
##diu
##div
##division
##dk
##dl
##dle
##dlich
##dll
##dlr
##dm
##dn
##dner
##do
##doc
##dok
##dokument
##dollar
##dom
##domin
##don
##donald
##door
##doppel
##dor
##dorf
##dorff
##dos
##down
##download
##dozent
##dp
##dpa
##dr
##dra
##drama
##dre
##dreh
##dreht
##drei
##dress
##drig
##dring
##dro
##droht
##drohung
##drom
##drs
##druck
##druckt
##drung
##drän
##dräng
##drängt
##drück
##drücklich
##drückt
##ds
##dt
##du
##dukt
##duktion
##dul
##dumping
##dung
##dur
##durch
##durchschnitt
##dustr
##duz
##duzier
##dv
##dw
##dy
##dynasti
##dür
##e
##ea
##ean
##earch
##eb
##eback
##eball
##ebel
##ebook
##ebr
##ebru
##ebruar
##ebung
##ec
##ecd
##ech
##echan
##echn
##echnet
##echnung
##echsel
##echselt
##echt
##echtig
##ecial
##eck
##ect
##ector
##ecu
##ecutiv
##ed
##eda
##eddeutsch
##edi
##edia
##edig
##edikt
##edition
##edn
##edo
##edoni
##edr
##edy
##ee
##een
##eep
##ef
##efa
##effiz
##effizienz
##eg
##ega
##egal
##egas
##egel
##egg
##egk
##egn
##egnet
##egr
##egt
##eh
##eha
##ehend
##ehin
##ehl
##ehlshab
##ehlt
##ehlung
##ehm
##ehmig
##ehmt
##ehn
##ehnt
##ehr
##ehrt
##ehrung
##eht
##ei
##eia
##eib
##eich
##eichef
##eichert
##eicht
##eid
##eidet
##eidung
##eie
##eien
##eier
##eiermark
##eiern
##eiert
##eif
##eig
##eigenschaft
##eigent
##eigentum
##eigentüm
##eigert
##eigh
##eight
##eign
##eignet
##eignung
##eigt
##eigung
##eih
##eil
##eill
##eilt
##eilung
##eim
##eimar
##ein
##einand
##einbar
##eind
##einfluss
##eing
##eingang
##einhalb
##einheit
##einig
##einigt
##einkomm
##einnahm
##einricht
##einsatz
##einschliess
##einsätz
##eint
##einträch
##einträcht
##einzel
##eir
##eira
##eiro
##eis
##eiss
##eist
##eister
##eistung
##eit
##eitag
##eitet
##eith
##eitig
##eitung
##ek
##ekt
##ektar
##ektor
##eku
##ekul
##ekut
##ekü
##el
##ela
##eland
##elb
##eld
##eldet
##eldung
##eleas
##eleg
##elekt
##elektron
##element
##elev
##elevan
##elevant
##elevanz
##eley
##elf
##eli
##elig
##eligi
##elin
##ell
##ella
##elli
##ello
##ellschaft
##eln
##elo
##elor
##elsberg
##elson
##elt
##elta
##eltreff
##ely
##em
##ema
##emal
##eman
##emand
##emann
##emark
##emaschin
##emat
##emb
##emberg
##embl
##emburg
##emein
##emeist
##ement
##ementier
##emi
##emin
##eminar
##emission
##emit
##emm
##emmt
##emn
##emoni
##emp
##empel
##empf
##empfäng
##empl
##emy
##en
##ena
##enc
##encyclopedia
##end
##endar
##endel
##endet
##endien
##endig
##endo
##endorf
##endung
##energi
##eness
##enez
##eng
##engl
##englisch
##enhag
##eni
##enix
##enk
##enkt
##enkung
##enn
##enna
##ennam
##ennetz
##enning
##ennt
##enntnis
##ennung
##ennzeichnet
##enr
##ensburg
##enseit
##ension
##ensis
##enswert
##ent
##enta
##entag
##ental
##entar
##entgelt
##enthal
##entin
##entlich
##entr
##entral
##entrum
##enträg
##entscheid
##entschied
##entsprech
##entum
##enturm
##entwick
##entwickl
##entwurf
##entz
##enz
##enza
##enzt
##eo
##ep
##epag
##er
##era
##eral
##erb
##erd
##erecht
##erei
##ereig
##erenz
##erfolg
##erg
##ergebnis
##ergi
##erh
##erhalt
##erheb
##erhöh
##eri
##erikan
##erin
##ering
##erinn
##erisch
##erit
##erium
##erk
##erkannt
##erkenn
##erklost
##erklär
##erkran
##erkrank
##erkt
##erl
##ern
##ernd
##ernt
##ero
##erob
##err
##erry
##ersatz
##ersdorf
##erseit
##erson
##erst
##erstatt
##ersteh
##erstversorg
##ersön
##ert
##ertal
##ertig
##erto
##ertoir
##ertor
##erung
##erv
##ervic
##erw
##erweis
##erwerb
##erz
##erzeug
##erzeugnis
##eröffn
##es
##esa
##esc
##esch
##eschrift
##esco
##esday
##esend
##esent
##esg
##esh
##esheim
##esi
##esis
##esisch
##esk
##eskop
##esn
##esp
##esr
##ess
##essa
##esse
##essel
##esseln
##ession
##essisch
##essor
##essort
##essour
##essourc
##essung
##essur
##est
##estag
##esterreich
##estra
##et
##eta
##etal
##etch
##etenz
##eth
##etho
##eti
##etik
##etin
##eting
##etisch
##etit
##etl
##etn
##eto
##eton
##etor
##etr
##etra
##etri
##etrist
##etsch
##ett
##etta
##ettb
##ettbewerb
##ettel
##ettet
##etti
##etto
##etty
##etwa
##ety
##etz
##etzt
##etzugang
##etzung
##eu
##euert
##eug
##eugh
##eur
##euro
##europ
##europa
##europameist
##eut
##eutet
##eutnant
##eutral
##eutsch
##euv
##eux
##ev
##ew
##ewg
##ex
##exkl
##express
##ey
##ez
##f
##fa
##fabrik
##fac
##fach
##facht
##fachung
##fad
##fahn
##fahr
##fahrerin
##fahrt
##fahrung
##fahrzeug
##faktor
##fal
##fall
##fallend
##falt
##famil
##famili
##fan
##fang
##fant
##far
##farb
##farkt
##fas
##fass
##fassad
##fasst
##fassung
##fassungsgericht
##fast
##fb
##fc
##fcf
##fd
##fdp
##fe
##februar
##fecht
##fechtbar
##fed
##feed
##fehl
##fehlerhaft
##fehlshab
##feier
##feind
##fekt
##fektion
##fektur
##fel
##feld
##feldt
##fell
##fellos
##feln
##felt
##fen
##fer
##ferenc
##ferenz
##feri
##fern
##fernseh
##fert
##fertig
##fertigt
##fest
##festival
##festsetz
##feu
##feuerwehr
##ff
##ffe
##ffekt
##ffel
##ffen
##ffend
##ffer
##ffiz
##ffizi
##ffizienz
##fft
##fg
##fgo
##fh
##fi
##fia
##fiction
##fie
##fiel
##field
##fig
##figur
##fil
##film
##filmung
##filt
##fin
##final
##finanz
##finanzier
##find
##findet
##findung
##fing
##finition
##fir
##firm
##firma
##fis
##fisch
##fit
##fiz
##fiziert
##fizit
##fj
##fjo
##fju
##fk
##fl
##fla
##fle
##fleisch
##flekt
##flex
##flich
##flieg
##fliess
##flikt
##flix
##flog
##floss
##flott
##flu
##flucht
##flug
##flugzeug
##flur
##fluss
##flut
##flä
##fläch
##flü
##flüg
##flügel
##flüss
##fm
##fn
##fo
##foe
##fol
##folg
##folgend
##folger
##folgt
##folgung
##folio
##fon
##fond
##foni
##for
##ford
##forder
##fordert
##form
##formanc
##format
##formation
##formel
##formular
##forsch
##forschung
##forst
##fort
##fortsetz
##forum
##fot
##foto
##fotos
##fp
##fr
##fra
##frag
##fragt
##fraktion
##fran
##franc
##frank
##frankreich
##französ
##frastruktur
##frau
##fre
##fred
##free
##frei
##freie
##freien
##freiheit
##frem
##frequenz
##freu
##freud
##freund
##freundlich
##fried
##friedhof
##friedrich
##fries
##frist
##fristig
##fro
##fron
##front
##frän
##fränkisch
##frü
##frücht
##früh
##fs
##fse
##fso
##fst
##fsweis
##ft
##ftaxonomy
##fte
##ften
##fter
##ftet
##ftig
##ftigkeit
##fts
##ftung
##ftwar
##fu
##fuhr
##ful
##fun
##fund
##fung
##funk
##funktion
##fur
##furt
##fus
##fuss
##fussball
##futt
##fv
##fw
##fx
##fz
##fä
##fäh
##fähig
##fäl
##fälisch
##fäll
##fällig
##fällt
##fält
##fäng
##fär
##fäss
##fö
##fög
##förd
##förder
##förm
##förmig
##fü
##füg
##fügt
##fügung
##fühl
##fühlt
##führ
##führend
##führerin
##führt
##führung
##füll
##füllt
##füllung
##für
##fürst
##g
##ga
##gab
##gal
##galeri
##gam
##gan
##gang
##ganis
##ganisation
##ganz
##gar
##garag
##gard
##garn
##gart
##gas
##gass
##gast
##gat
##gattung
##gau
##gb
##gc
##gd
##ge
##geb
##gebaut
##gebend
##gebiet
##gebir
##gebirg
##geblich
##geblieb
##gebnis
##gebog
##gebor
##gebot
##gebra
##gebracht
##gebrauch
##gebroch
##gebund
##gebung
##geburt
##gebäud
##gebühr
##ged
##gedacht
##gedank
##gee
##gef
##gefahr
##gefall
##gefang
##gefund
##gefä
##gefähr
##gefü
##gefügt
##gefühl
##geführt
##geg
##gegang
##gegeb
##gegenstand
##gegenständ
##gegenüb
##gegn
##gegnung
##gegrün
##geh
##gehalt
##geheim
##gehend
##gehob
##gehr
##geht
##gehung
##gehör
##gei
##geist
##gek
##gekomm
##gel
##gelad
##gelass
##gelb
##geld
##geleg
##gelegt
##geleitet
##gelenk
##gelernt
##gell
##geln
##gelt
##geltung
##gelung
##geländ
##gelöst
##gem
##gemacht
##gemein
##gemeind
##gemeinschaft
##gement
##gemess
##gemä
##gemäld
##gemäss
##gen
##genannt
##genau
##gend
##genda
##gendet
##gendetwas
##genehm
##general
##generalsekretär
##genomm
##genoss
##genossenschaft
##genstein
##gent
##gentin
##gentur
##genz
##genöss
##geord
##geordnet
##georg
##ger
##gerechnet
##gerecht
##geregt
##gericht
##gerichtet
##gerichtshof
##gerichtsordn
##german
##gern
##gert
##geruf
##gerung
##gerät
##ges
##gesagt
##gesamt
##gesang
##gesch
##gescheh
##geschicht
##geschlag
##geschlecht
##geschloss
##geschnitt
##geschoss
##geschrieb
##geschritt
##geschwind
##geschä
##geschäf
##geschäft
##geschäftsführ
##geseh
##gesell
##gesellschaft
##gesetz
##gesetzbuch
##gesetzgeb
##gesetzt
##gesicht
##gesp
##gespielt
##gesproch
##gesprä
##gespräch
##gess
##gest
##gestalt
##gestell
##gestellt
##gestüt
##gesuch
##gesucht
##gesund
##get
##getan
##getr
##getret
##getrieb
##gew
##gewachs
##gewal
##gewalt
##geweb
##gewehr
##gewerb
##gewerk
##gewerkschaft
##gewicht
##gewies
##gewinn
##geword
##geworf
##gewächs
##gewählt
##gewähr
##gewäss
##gewöhn
##gewölb
##gezog
##geübt
##gf
##gg
##gge
##gh
##ghan
##gi
##gia
##gibt
##gie
##giebel
##gien
##gier
##gif
##gift
##gig
##gin
##ging
##gio
##gipfel
##gis
##gisch
##git
##gitar
##gitt
##gitverlag
##gium
##gj
##gl
##gladbach
##gland
##glas
##glei
##gleich
##gleichheit
##gleichung
##gleis
##gler
##glet
##glich
##glichkeit
##glie
##glied
##glieder
##gliedert
##glo
##glos
##gläub
##gläubig
##glück
##gm
##gmbh
##gn
##gna
##gne
##gner
##gnor
##gnos
##gnost
##go
##gol
##gold
##golf
##gon
##googl
##gor
##got
##gott
##gottesdien
##gov
##gow
##gp
##gr
##gra
##grab
##grad
##graf
##gram
##gramm
##gran
##grand
##grat
##gre
##greg
##greif
##greifend
##greift
##grem
##gren
##grenz
##grenzt
##grenzung
##gress
##gri
##griech
##griff
##gro
##gross
##ground
##gru
##grub
##grund
##grundlag
##grundsatz
##grundstück
##grupp
##grä
##gräb
##grö
##gröss
##grösst
##grün
##gründ
##gründet
##gründung
##gs
##gst
##gste
##gt
##gte
##gten
##gth
##gton
##gu
##guia
##guid
##gun
##gung
##gur
##guss
##gut
##gutacht
##gv
##gy
##gymnasium
##gyp
##gypt
##gä
##gäng
##gängig
##gärt
##gärtn
##gäst
##gäu
##gü
##gül
##gült
##gültig
##gün
##güt
##h
##ha
##haar
##hab
##hac
##had
##hae
##haf
##haft
##haftet
##haftig
##haftung
##hag
##hai
##hail
##hain
##hal
##halb
##hall
##halt
##haltestell
##haltig
##haltung
##ham
##hamm
##han
##hand
##handel
##handeln
##handelt
##handlung
##handwerk
##hang
##hann
##hansa
##har
##hard
##hardt
##harmon
##hart
##has
##hat
##hatt
##hattan
##hau
##hauf
##haupt
##hauptmann
##hauptstadt
##haus
##haushalt
##haut
##hav
##haw
##hb
##hc
##hcn
##hd
##he
##hea
##head
##heat
##heb
##heblich
##hebt
##hebung
##hec
##hed
##hedr
##hedral
##hee
##heer
##heft
##hei
##heid
##heil
##heim
##heimisch
##hein
##heinz
##heira
##heiratet
##heit
##heitlich
##heizung
##hel
##held
##helf
##helferin
##hell
##helm
##hem
##hema
##hemat
##hen
##hend
##hent
##heori
##her
##herap
##herapeut
##herapi
##heraus
##herd
##herein
##herin
##hern
##herr
##herrn
##herrschaft
##hersag
##herstell
##herz
##herzog
##hes
##hess
##het
##hetor
##heut
##hew
##hf
##hfo
##hg
##hh
##hi
##hias
##hib
##hielt
##hier
##hig
##hil
##hilf
##him
##hin
##hind
##hindert
##hinein
##hing
##hington
##hink
##hint
##hip
##hir
##histor
##hit
##hk
##hl
##hle
##hlen
##hler
##hlet
##hlon
##hls
##hlt
##hm
##hma
##hmann
##hmen
##hmer
##hmt
##hn
##hna
##hnacht
##hne
##hneh
##hnehin
##hnen
##hner
##hnt
##hnte
##hnten
##hnung
##ho
##hob
##hoc
##hoch
##hochschul
##hockey
##hod
##hodo
##hodox
##hoe
##hof
##hoff
##hofft
##hoheit
##hol
##hold
##holf
##holm
##holog
##hologi
##holstein
##holt
##holung
##holz
##hom
##hon
##honduras
##hop
##hor
##horn
##horst
##hos
##hosp
##host
##hot
##hotel
##hou
##hous
##hout
##hov
##how
##hp
##hr
##hra
##hre
##hren
##hrin
##hring
##hro
##hrop
##hs
##hst
##ht
##hte
##hten
##hter
##htm
##html
##http
##hu
##hub
##hum
##hund
##hundert
##hung
##hur
##hus
##hut
##hv
##hw
##hy
##hyd
##hythm
##hythmus
##hz
##hä
##häf
##häl
##hälft
##hält
##hältnis
##hältnismäss
##hän
##händ
##händl
##häng
##hängig
##hängt
##här
##häs
##häuf
##häus
##häusch
##hö
##höch
##höf
##höh
##höhl
##höhung
##höl
##hör
##hörd
##hörig
##hört
##hü
##hügel
##hüll
##hüt
##hütt
##i
##ia
##iac
##iae
##iago
##iak
##ial
##ialog
##iam
##iami
##ian
##iana
##ianc
##iani
##ianisch
##iano
##iao
##iar
##iard
##ias
##iast
##iat
##iation
##iatisch
##iatri
##ib
##iba
##iban
##ibel
##ibil
##ibilität
##ibir
##ibl
##ibt
##ibus
##iby
##ic
##ica
##ical
##ican
##icana
##icas
##ication
##icc
##iccaldat
##ich
##icher
##icherheitsrat
##ichert
##icht
##ichtag
##ichtet
##ichtig
##ichtigt
##ichtlich
##ichtung
##ici
##icip
##ick
##icket
##icki
##ickl
##ickt
##ico
##icon
##icro
##ics
##ict
##iction
##ictionary
##ictur
##icum
##icus
##icy
##icz
##id
##ida
##idad
##idakt
##idar
##idas
##iday
##idd
##ide
##ident
##idenz
##ideo
##idi
##idn
##ido
##idsch
##idt
##ie
##ieb
##iebt
##ied
##iedelt
##iedl
##iedlung
##iee
##ief
##ieg
##iegel
##iegeln
##iegelt
##ieh
##iehlt
##ieht
##iel
##iela
##ield
##iell
##ielleicht
##ielsei
##ielt
##iem
##ien
##ienc
##iend
##iendly
##ienn
##ient
##ienz
##ier
##iera
##ierbar
##iereg
##ierend
##ieri
##iern
##ierr
##ierst
##iert
##ierung
##ies
##iess
##iesst
##iet
##ietet
##ietung
##iety
##ietz
##ieu
##ieur
##iew
##if
##ifa
##ifestyl
##iff
##iffeis
##ifferent
##ifferenz
##ific
##ifik
##ifikation
##ifiz
##ifizi
##ifizier
##ifiziert
##ifo
##iform
##ift
##iftet
##iftung
##ig
##iga
##igan
##igar
##igeb
##igend
##igent
##igerweis
##igh
##ight
##igi
##igin
##iginal
##igit
##igital
##igk
##igkeit
##igl
##ign
##ignal
##ignon
##igny
##igo
##igr
##igrant
##igration
##igt
##igtum
##igung
##igur
##ih
##ihr
##ii
##iii
##ij
##ija
##ijk
##ik
##ika
##ikal
##ikali
##ikan
##ikant
##ikas
##ikat
##ikation
##ikator
##ikel
##ikerin
##iki
##iko
##ikon
##ikos
##ikow
##ikro
##ikt
##ikum
##il
##ila
##iland
##ilb
##ild
##ildert
##ildet
##ilding
##ildr
##ilef
##ileg
##ili
##ilia
##ilian
##ilit
##ilitär
##ilität
##ill
##illa
##illas
##illeri
##illigt
##illo
##illon
##illy
##ilm
##ilmt
##ilo
##ilom
##ilomet
##ils
##ilt
##ilton
##ily
##im
##ima
##imag
##imal
##iment
##imet
##img
##imi
##imir
##imit
##imm
##immel
##imming
##immobil
##immobili
##immobilsarda
##immt
##immung
##immy
##imo
##imon
##imp
##impf
##imum
##in
##ina
##inal
##inar
##inas
##inburg
##inch
##ind
##indel
##inder
##indert
##indet
##index
##indikator
##indiz
##indl
##indlich
##indung
##industri
##ine
##inea
##ined
##inell
##inens
##inent
##inental
##iness
##inett
##info
##inform
##information
##infrastruktur
##ing
##ingend
##ingenieur
##ingham
##inghaus
##ingisch
##ingl
##ingo
##ingrad
##ingt
##ington
##ingu
##ingung
##inhab
##inhalt
##ini
##iniert
##ining
##inisch
##init
##initi
##initiativ
##ink
##inkel
##inki
##inkl
##inkt
##inland
##inn
##innend
##innt
##innung
##ino
##inois
##inos
##insbesond
##insel
##inseln
##inski
##inson
##inspektion
##install
##instanz
##institut
##institution
##instrum
##instrument
##int
##integr
##interess
##international
##interview
##inth
##inu
##inui
##inus
##inv
##investition
##inz
##inzip
##io
##iod
##iol
##iolab
##iologi
##iom
##ion
##ional
##iop
##ior
##ios
##iot
##ious
##ioxid
##ip
##ipedia
##ipel
##ipend
##ipl
##ipment
##ipo
##ipp
##ippi
##ippt
##ips
##iqu
##ir
##ira
##irbt
##irch
##ird
##irekt
##irektion
##irektor
##irg
##irgend
##irgt
##iri
##irisch
##irl
##irlpool
##irm
##irma
##irmingham
##irn
##iro
##irol
##iron
##irr
##irst
##irt
##irtschaf
##irur
##irurg
##irurgi
##irus
##is
##isa
##isation
##isc
##isch
##ischerweis
##ischof
##ischt
##ischung
##ischö
##isemit
##ish
##ished
##ishing
##isi
##isier
##isiert
##ision
##isk
##isl
##ism
##ismo
##ismus
##isol
##ison
##isp
##iss
##issa
##issar
##issement
##issenschaft
##isseur
##issheit
##ission
##isst
##ist
##ista
##istan
##istanz
##istent
##istenz
##istet
##istik
##istin
##istisch
##istor
##istr
##istry
##istum
##it
##ita
##ital
##itali
##itar
##itas
##itat
##itation
##itch
##ite
##ited
##itekt
##itel
##iteratur
##iterran
##ith
##ithm
##ithmus
##iti
##itiat
##itiativ
##itier
##itim
##ition
##itis
##itisch
##itiv
##itl
##itn
##itness
##ito
##itor
##itsch
##itt
##itte
##itter
##ittert
##ittl
##itu
##ituation
##itur
##itus
##itut
##itution
##ity
##itz
##itzel
##itzerland
##itzt
##itzung
##itä
##itän
##itär
##ität
##iu
##ium
##ius
##iusepp
##iv
##iva
##ival
##iveau
##iveaus
##iversität
##ivery
##ivid
##ivil
##iving
##ivision
##ivität
##iw
##iwod
##ix
##ixel
##iy
##iz
##iza
##ization
##ized
##izei
##izi
##izid
##izier
##iziert
##izin
##izip
##izismus
##izit
##izität
##izont
##izz
##izza
##j
##ja
##jagd
##jagt
##jah
##jahr
##jahrhundert
##jak
##jan
##jana
##januar
##jap
##jar
##jas
##jb
##jc
##jd
##jdi
##jdiu
##je
##ject
##jekt
##jektiv
##jemand
##jen
##jenig
##jer
##jes
##jet
##jew
##jewitsch
##jf
##jfm
##jfs
##jg
##jh
##ji
##jk
##jl
##jm
##jn
##jo
##job
##joch
##joe
##johann
##john
##jon
##jor
##jord
##jos
##journal
##joy
##jp
##jpg
##jq
##jr
##js
##jt
##ju
##jub
##jubil
##jugend
##jul
##juli
##jun
##jung
##juni
##junior
##junkt
##junktur
##jur
##just
##justiz
##jut
##jv
##jw
##jx
##jy
##jäg
##jähr
##jährig
##jährlich
##jün
##k
##ka
##kab
##kabel
##kal
##kalend
##kalk
##kam
##kamera
##kamm
##kamp
##kampf
##kan
##kanal
##kandid
##kandidat
##kann
##kant
##kap
##kapazität
##kapell
##kapit
##kapital
##kar
##karr
##karrenbau
##karri
##kart
##kas
##kass
##kast
##kasus
##kat
##katalog
##katastrop
##kathol
##kau
##kauf
##kauft
##kb
##kc
##kd
##ke
##kee
##kehr
##kehrt
##kehrung
##kei
##kein
##keit
##kel
##kell
##keln
##ken
##kenn
##kenntnis
##kep
##kept
##keptic
##ker
##kerl
##kern
##kes
##kesp
##ket
##kett
##key
##kg
##kh
##ki
##kil
##kilomet
##kin
##kind
##kir
##kirch
##kisch
##kk
##kl
##kla
##klag
##klagt
##klam
##klang
##klar
##klass
##klassig
##klat
##klaus
##klausel
##kle
##klei
##kleidung
##klein
##klen
##kler
##klich
##klichung
##klima
##klin
##kling
##klinik
##klost
##klub
##klus
##klusiv
##klär
##klärt
##klärung
##kläss
##km
##kn
##kne
##knecht
##knot
##known
##knü
##knüpf
##knüpft
##ko
##koch
##kod
##kohl
##kohol
##kok
##kol
##koll
##kolleg
##kom
##kombin
##komm
##kommand
##kommando
##kommissar
##kommission
##kommt
##kommun
##komp
##kompet
##kompetenz
##kompl
##komplex
##komponent
##kon
##konferenz
##konfl
##konflikt
##kong
##kongress
##konkurrenz
##konom
##konserv
##konstru
##konstruktion
##konsum
##kont
##kontakt
##konting
##konto
##kontro
##kontroll
##konvention
##konz
##konzentr
##konzept
##konzern
##konzert
##koordin
##kop
##kopf
##kor
##korb
##kord
##korea
##korean
##korn
##korps
##korrespondent
##kos
##kost
##kov
##kow
##kp
##kr
##kra
##kraft
##krafttret
##kraftwerk
##kran
##krank
##kranz
##kraut
##kre
##kreb
##kredit
##kreis
##kres
##kret
##kretär
##kreu
##kreuz
##krie
##krieg
##kris
##krit
##kriteri
##kritik
##kru
##krut
##krä
##kräf
##kräft
##kräftig
##krö
##ks
##ksam
##ksamkeit
##ksh
##kshop
##kt
##kte
##kten
##kter
##kteur
##kti
##ktien
##ktier
##ktiert
##ktik
##ktion
##ktisch
##ktiv
##ktivität
##ktob
##ktop
##ktor
##ktur
##ku
##kuch
##kugel
##kul
##kular
##kultur
##kum
##kun
##kund
##kundig
##kunft
##kung
##kupp
##kur
##kuri
##kurr
##kurrent
##kurrenz
##kurs
##kurv
##kurz
##kus
##kv
##kw
##ky
##kä
##kämpf
##käuf
##kö
##köll
##kömm
##kön
##könig
##könn
##köpf
##köpfig
##körp
##kü
##küch
##kühl
##kün
##künd
##kündig
##kündigt
##kündung
##künf
##künft
##künstl
##kür
##kürzung
##küst
##l
##la
##lab
##label
##labor
##lach
##lacht
##lack
##lad
##ladbach
##ladimir
##ladung
##ladysilvia
##laf
##lag
##lager
##lagert
##lagt
##lalom
##lam
##lament
##lan
##land
##landkreis
##landschaft
##lang
##langt
##langung
##lank
##lant
##lanz
##lappt
##lar
##las
##lass
##lassung
##last
##lastet
##lastung
##lat
##lau
##laub
##laubnis
##laubt
##lauch
##laud
##lauf
##laufbahn
##laufend
##laus
##lausel
##laut
##lav
##lava
##law
##lay
##lb
##lc
##ld
##le
##leagu
##lean
##leb
##lebnis
##lebt
##lech
##lecht
##led
##lee
##lef
##lefon
##leg
##legend
##legt
##legung
##leh
##lehn
##lehnt
##lehnung
##lehr
##lei
##leib
##leibt
##leich
##leicht
##leichter
##leid
##leidet
##leidung
##leih
##leihung
##lein
##leisch
##leiss
##leist
##leistet
##leistung
##leit
##leiterin
##leitet
##leitung
##lekt
##lem
##len
##lenburg
##lenkung
##lenz
##lepp
##leppt
##ler
##lerin
##lern
##les
##less
##let
##letzt
##leucht
##leun
##leut
##leutnant
##lev
##lex
##lexib
##lexibl
##ley
##lf
##lg
##lh
##li
##lia
##lich
##licherweis
##lichkeit
##licht
##lichung
##lie
##lieb
##lied
##lief
##liefer
##liefert
##lieg
##liegend
##liegt
##lieh
##lies
##liess
##liesslich
##liesst
##liessung
##lig
##liga
##ligist
##lim
##limit
##lin
##lind
##ling
##lingt
##lini
##linik
##link
##lis
##list
##lit
##literatur
##litz
##ll
##lla
##lland
##lle
##lleg
##llen
##ller
##lleri
##lley
##lleyball
##lli
##llig
##lligkeit
##lln
##llo
##lls
##llt
##llte
##lm
##ln
##lo
##load
##lob
##loch
##lock
##log
##loh
##lohn
##lok
##lon
##lor
##los
##losig
##loss
##lost
##losung
##lou
##lov
##low
##lowak
##lowakei
##loyd
##lp
##lr
##ls
##lse
##lsen
##lt
##lu
##lud
##luft
##lug
##lung
##luss
##lust
##lv
##ly
##lyn
##lä
##läch
##läd
##läg
##lägerin
##länd
##ländisch
##läng
##lär
##lärm
##lärt
##lärung
##läs
##läss
##lässig
##lässlich
##lässt
##lät
##lätt
##lätz
##läub
##läuf
##läufig
##läuft
##läut
##lö
##lös
##löst
##lösung
##lü
##lück
##lüss
##m
##ma
##mach
##macht
##machung
##mack
##mad
##mag
##magazin
##mahl
##mai
##maier
##mail
##main
##major
##mak
##mal
##malerei
##malig
##mall
##malt
##man
##mana
##manag
##management
##mand
##mandat
##mandi
##mangel
##manisch
##mann
##mannschaft
##mantel
##manuel
##mar
##marathon
##marck
##mari
##maria
##marin
##mark
##markt
##marsch
##marschall
##mart
##martin
##mas
##maschin
##mass
##massnahm
##massstab
##mast
##mat
##material
##materiali
##matet
##matt
##mau
##maus
##max
##maxim
##maximilian
##may
##maz
##mb
##mbach
##mbh
##mc
##md
##me
##mechan
##mechanism
##mechanismus
##med
##medaill
##medi
##media
##medizin
##mee
##meer
##mehr
##mehrheit
##mei
##meier
##mein
##meist
##meisterin
##meisterschaft
##mel
##meld
##meldung
##melz
##men
##meng
##mensch
##mension
##ment
##mer
##mera
##merk
##merkmal
##merksam
##merkt
##mern
##mert
##merz
##mes
##mess
##messung
##met
##metal
##metall
##metho
##method
##metik
##mey
##mf
##mg
##mh
##mi
##mich
##mie
##mien
##mil
##milch
##mill
##millimet
##million
##min
##mina
##minist
##ministerin
##ministerium
##ministr
##ministrat
##ministration
##minton
##minut
##minü
##minüt
##mio
##mir
##miral
##misch
##mischung
##miss
##missbrauch
##mission
##mit
##mitarbeit
##mitgli
##mitglied
##mitgliedstaat
##mith
##mitt
##mittag
##mitte
##mittel
##mittelalt
##mittelbar
##mitteln
##mittelt
##mittl
##mittlung
##mitz
##mj
##ml
##mlich
##mm
##mme
##mmen
##mmer
##mmetr
##mmf
##mn
##mnt
##mo
##mobil
##mod
##modell
##modus
##mol
##mon
##monat
##mond
##mont
##moor
##mor
##mord
##morg
##mos
##mosphär
##mot
##motiv
##motor
##mp
##mr
##ms
##mt
##mu
##mul
##mun
##mund
##mung
##mus
##museum
##musik
##must
##mut
##mutt
##my
##mz
##mä
##mäch
##mächt
##mächtig
##mädch
##mäh
##mäl
##männ
##mär
##märkt
##märz
##mäss
##mässig
##mö
##mög
##möglich
##mü
##mühl
##müll
##mün
##mündung
##müt
##n
##na
##nab
##nabrück
##nac
##nach
##nachfolg
##nachfrag
##nachläss
##nachmittag
##nachricht
##nacht
##nachweis
##nack
##nad
##nae
##nah
##nahm
##nahmt
##nal
##nam
##nan
##nant
##napp
##nappt
##nas
##national
##nationalpark
##natur
##nau
##nb
##nc
##nchen
##nd
##nde
##nder
##ndt
##ne
##nea
##neb
##neburg
##necht
##nee
##neen
##neg
##neh
##nehm
##nehmlich
##nehmung
##nei
##neid
##nein
##nel
##nell
##nem
##nen
##neo
##ner
##nerin
##nern
##nerstag
##nes
##nesday
##ness
##nest
##net
##nett
##netz
##netzagentur
##neu
##neub
##neum
##neut
##new
##news
##next
##ney
##nez
##nf
##ng
##nh
##ni
##nicht
##nick
##nie
##nied
##niederlag
##nien
##nier
##nig
##nik
##nimmt
##ning
##nis
##nisch
##nit
##nitt
##nitz
##niveau
##nk
##nl
##nm
##nn
##nne
##nnen
##no
##noch
##noe
##nomm
##nor
##nord
##norm
##not
##nov
##novemb
##now
##nowiki
##np
##nr
##ns
##nst
##nt
##nte
##nten
##nu
##nue
##null
##numm
##nung
##nur
##nutz
##nutzung
##nv
##nvo
##ny
##nä
##näch
##nö
##nü
##nüpf
##nüpft
##nüpfung
##nütz
##o
##oa
##ob
##oba
##obahn
##obby
##obei
##obel
##oberfläch
##oberhaupt
##obert
##obi
##obil
##obili
##objekt
##obt
##oc
##ocaust
##occas
##occasion
##och
##ocht
##ock
##ockt
##ocus
##od
##oda
##odation
##odell
##odi
##odor
##odurch
##ody
##oe
##oen
##oes
##oesterreich
##of
##off
##offiz
##offizi
##oft
##og
##oga
##ogan
##ogel
##ogi
##ogl
##ogn
##ognit
##ogo
##ogra
##ograf
##ografi
##ogramm
##ograph
##ographi
##ogt
##oh
##ohl
##ohn
##ohnt
##ohnung
##ohr
##oi
##oid
##oin
##oir
##ois
##ok
##oka
##okal
##oko
##okol
##okoll
##okon
##okrat
##okrati
##oktob
##okument
##okus
##okuss
##ol
##ola
##oland
##olas
##old
##oldat
##oldt
##oldung
##oleranz
##olet
##olf
##olg
##oli
##olia
##olin
##olis
##olisch
##olit
##olith
##oll
##ollar
##ollow
##ollt
##olly
##olo
##olog
##ologi
##ological
##ologin
##ology
##olph
##olstadt
##olt
##olta
##olution
##oly
##olz
##om
##oma
##oman
##omas
##omat
##omb
##omenad
##omenkl
##omenklatur
##oment
##omet
##ometr
##ometri
##omi
##omin
##ominiert
##omit
##omm
##ommel
##ommerzi
##ommun
##ommy
##omo
##omon
##omot
##omotiv
##omp
##ompson
##ompt
##omput
##omög
##on
##ona
##onach
##onanz
##onat
##ond
##onda
##ondo
##ondon
##onduras
##onent
##oney
##ong
##oni
##onia
##onial
##onisch
##onlin
##onn
##onna
##onnement
##onom
##onomi
##onomy
##onstr
##ont
##ontin
##onto
##ontroll
##ony
##onym
##oo
##ook
##ool
##oon
##oor
##op
##opath
##opel
##openhag
##openx
##operation
##opf
##opft
##oph
##ophil
##ophon
##oping
##opl
##opol
##opolit
##opp
##oppel
##oppelt
##opping
##opplung
##oppt
##opro
##ops
##opt
##option
##opul
##opäd
##or
##ora
##oral
##orb
##orca
##orch
##ord
##ordin
##ordn
##ordnet
##ordnung
##orenz
##oret
##orf
##orff
##org
##organ
##organis
##organisation
##orgfält
##orgnis
##orgt
##orgung
##ori
##oria
##orient
##orientier
##orientiert
##orig
##origin
##original
##originaltitel
##orisch
##ork
##orm
##orn
##orno
##oro
##orp
##orph
##orpor
##orps
##orr
##orrespondent
##orsam
##ort
##orth
##orthodo
##orthodox
##orum
##orweg
##ory
##os
##osa
##osc
##osex
##osh
##oshi
##osis
##osit
##osition
##osk
##oskana
##oskop
##osl
##oslaw
##osn
##osom
##osop
##osoph
##osophi
##oss
##ossa
##ost
##osta
##ostat
##ostet
##oston
##ot
##ota
##otal
##otball
##otel
##otent
##otential
##oth
##othek
##otherapi
##oti
##oting
##otion
##otisch
##otiv
##oto
##otoc
##otocac
##otograf
##otop
##otor
##otos
##otr
##ott
##otta
##ottenburg
##otti
##otto
##otum
##otyp
##otz
##ou
##ough
##oul
##ound
##our
##ourc
##ouri
##ourn
##ournal
##ourt
##ous
##ousin
##out
##outub
##ouv
##ouvell
##ouvern
##ouverneur
##oux
##ov
##ova
##ovemb
##ovg
##ovi
##ovic
##ovis
##ovo
##ovolta
##ovon
##ow
##owa
##owak
##owakei
##oweit
##owina
##owitsch
##owitz
##own
##ownlo
##ownload
##owo
##ows
##owski
##ox
##oxid
##oy
##oz
##ozi
##ozial
##ozy
##p
##pa
##paar
##pack
##packt
##pag
##paket
##pal
##palast
##pan
##pap
##papi
##par
##parad
##parat
##paratur
##park
##parkplatz
##parlament
##part
##partei
##partement
##partment
##partn
##party
##pass
##passt
##pat
##patent
##paul
##paus
##pausch
##pauschal
##pb
##pc
##pd
##pdf
##pe
##ped
##pedition
##pekt
##pel
##pen
##pend
##penilef
##penilefitness
##pension
##per
##peratur
##period
##perrt
##person
##personal
##pert
##pes
##pet
##pez
##pf
##pfalz
##pfarr
##pfe
##pfeil
##pfel
##pfen
##pfer
##pfiff
##pfl
##pflanz
##pflanzt
##pfleg
##pflich
##pflicht
##pflichtig
##pflichtung
##pft
##pfte
##pfung
##pfäl
##pfälz
##pfälzisch
##pg
##ph
##phabet
##phal
##phan
##phas
##phe
##phen
##phet
##phia
##phil
##phin
##php
##phy
##phys
##physik
##pi
##pic
##pid
##pie
##piel
##pielt
##pil
##pin
##ping
##pit
##pko
##pl
##pla
##plan
##planck
##plant
##planung
##platt
##plattform
##platz
##platziert
##play
##ple
##ples
##plo
##plomat
##plos
##plung
##plus
##plän
##plätz
##pm
##pn
##png
##po
##point
##pokal
##pol
##polit
##polizei
##pomm
##pon
##pool
##pop
##por
##port
##portal
##porti
##portiert
##pos
##posit
##position
##post
##pot
##pow
##pp
##ppchen
##ppe
##ppel
##ppen
##ppenheim
##pper
##ppich
##pport
##pps
##ppt
##ppte
##ppy
##pr
##pra
##prakt
##prakti
##praxis
##pre
##prech
##preis
##preisträg
##prem
##pres
##press
##pression
##pret
##preuss
##pri
##pril
##prin
##prinzip
##pris
##priv
##pro
##prob
##probi
##probl
##problem
##proch
##produ
##product
##produkt
##produktion
##produz
##produzent
##prof
##professor
##profi
##profil
##programm
##projekt
##prom
##prot
##protokoll
##provid
##provinz
##provis
##proz
##prozent
##prozess
##pruch
##prä
##prägt
##präs
##präsent
##präsentant
##präsentantenhaus
##präsid
##präsident
##präsidium
##prü
##prüf
##prüft
##prüfung
##ps
##psis
##pst
##pstlich
##psych
##pt
##ptemb
##ption
##pton
##pu
##publ
##publik
##puertor
##puertorico
##pulv
##punkt
##pur
##pus
##put
##px
##py
##pä
##pädagog
##pö
##q
##qb
##qg
##qi
##ql
##qly
##qlyqu
##qm
##qn
##qq
##qs
##qu
##qua
##qualif
##qualifikation
##qualifiz
##qualität
##quar
##quart
##quarti
##que
##quell
##quem
##quen
##quenz
##quer
##quert
##ques
##quest
##quested
##quet
##quid
##quin
##quir
##quis
##quot
##qv
##qx
##qy
##r
##ra
##rab
##rac
##rach
##racht
##rachtet
##rack
##rad
##radio
##radition
##rador
##rae
##rael
##raf
##raft
##rag
##ragend
##ragung
##rah
##raham
##rahm
##rain
##raining
##rak
##rakt
##rakti
##ral
##rali
##rall
##ram
##rament
##ramm
##ran
##ranch
##rand
##randenburg
##rang
##rank
##rankenhaus
##rankheit
##rannt
##ransf
##ransp
##ransport
##rant
##ranz
##ranzös
##raph
##rar
##ras
##rass
##rat
##ratet
##rath
##rating
##ration
##ratis
##rator
##ratshaus
##ratz
##rau
##raub
##rauch
##raucht
##raum
##raut
##raw
##rax
##raxis
##ray
##rb
##rc
##rd
##re
##rea
##real
##ream
##reb
##rebung
##rec
##rech
##rechend
##rechn
##rechnung
##recht
##rechtlich
##rechtsprech
##reck
##reckt
##red
##redakteur
##redaktion
##redit
##ree
##reen
##ref
##reff
##reffend
##reform
##reg
##regation
##regel
##regeln
##regend
##regier
##regiment
##regiolab
##region
##regisseur
##regist
##regung
##reh
##rei
##reib
##reibt
##reibung
##reich
##reichend
##reicht
##reichung
##reid
##reien
##reif
##reift
##reig
##reih
##rein
##reis
##reiss
##reisträg
##reit
##reitag
##reitet
##reitung
##reiz
##rekord
##rektur
##rel
##relevan
##rell
##rem
##ren
##rena
##renc
##rend
##reng
##rengt
##rengung
##renn
##rennfahr
##rennt
##rent
##renz
##renzt
##renzung
##rep
##report
##republ
##rer
##res
##reserv
##resp
##respon
##respond
##respondent
##ress
##ressourc
##rest
##ret
##rett
##retung
##reu
##reund
##reundet
##reut
##reuth
##reuung
##reuz
##revi
##revolution
##rew
##rey
##rez
##rezeption
##rf
##rg
##rh
##rhein
##ri
##ria
##rian
##rib
##ribut
##ribution
##ric
##rica
##rich
##richt
##richtet
##richtlini
##richtung
##rick
##rict
##rid
##ridg
##rie
##rieb
##riech
##ried
##rief
##rieg
##riel
##rien
##rier
##ries
##riest
##riet
##rif
##riff
##rifft
##rift
##rig
##right
##rik
##rika
##rikan
##rikas
##rikt
##rill
##rim
##rimin
##riminal
##rin
##rina
##ring
##ringer
##ringt
##rink
##rint
##rinzip
##rio
##rip
##ripp
##ript
##ription
##riqu
##ris
##risch
##risiko
##riss
##rist
##ristall
##ristet
##rit
##ritor
##ritt
##ritz
##rium
##riv
##rivat
##rix
##riz
##rizona
##rk
##rl
##rm
##rn
##rne
##ro
##road
##rob
##robo
##roch
##rock
##rockn
##rod
##roe
##roff
##rog
##roh
##rohr
##roht
##rohung
##roit
##rol
##roll
##rom
##roman
##ron
##rond
##rondiss
##rondissement
##rong
##ronic
##ronik
##ronom
##ronomi
##ront
##room
##rop
##roph
##ropol
##ror
##ros
##rosion
##ross
##rost
##rot
##roth
##rott
##rotz
##rou
##round
##rout
##rov
##row
##rows
##roy
##rp
##rr
##rs
##rt
##rte
##rtner
##rtung
##ru
##ruar
##ruck
##rud
##rue
##ruf
##rug
##ruh
##ruktur
##rum
##rument
##rumpf
##run
##rund
##rung
##runk
##rup
##rupp
##ruption
##rus
##russ
##russland
##rust
##rustr
##rut
##rv
##rw
##ry
##rypt
##rz
##rä
##räbnis
##räch
##rächt
##räd
##räf
##räft
##räg
##räglich
##rägt
##rän
##ränk
##ränkisch
##ränkt
##ränkung
##räs
##räsent
##räsentant
##räsentantenhaus
##räsentation
##räsid
##räsident
##räsidentschaft
##rät
##rätin
##räu
##räuch
##räum
##räumt
##rö
##röh
##röm
##rön
##rönt
##röss
##rü
##rüb
##rück
##rückt
##rüd
##rüf
##rüft
##rüfung
##rüg
##rüm
##rümm
##rün
##rüs
##rüst
##rüstung
##s
##sa
##saal
##sab
##sabgeordnet
##sach
##sachs
##sag
##sah
##saint
##saison
##sal
##salon
##salz
##sam
##samkeit
##samm
##sammel
##sammlung
##samt
##san
##sar
##sarda
##sat
##satz
##satzung
##satzweis
##sau
##sb
##sbach
##sbad
##sbahn
##sbank
##sbe
##sbed
##sbeding
##sbeg
##sbeh
##sbehörd
##sbek
##sberg
##sbesch
##sbest
##sbet
##sbeweg
##sbezirk
##sbruck
##sburg
##sbürg
##sc
##sch
##scha
##schach
##schad
##schaf
##schaff
##schafft
##schaffung
##schaft
##schaftlich
##schall
##schalt
##schaltung
##schanz
##schar
##schatz
##schau
##schaus
##schauspiel
##sche
##schech
##schee
##schef
##schei
##scheib
##scheid
##scheidet
##scheidung
##schein
##scheinend
##scheinlich
##scheinung
##schel
##schen
##schend
##schenkel
##schenko
##scher
##schern
##sches
##schet
##schew
##schg
##schi
##schicht
##schie
##schieb
##schiebung
##schied
##schiess
##schiff
##schihad
##schild
##schin
##schir
##schirm
##schke
##schl
##schlacht
##schlaf
##schlag
##schlaggeb
##schle
##schlei
##schles
##schliess
##schliessend
##schliesslich
##schliesst
##schliessung
##schloss
##schlug
##schlus
##schluss
##schlä
##schläg
##schlägt
##schlüss
##schlüssel
##schm
##schmer
##schmerz
##schmidt
##schmuck
##schmutzung
##schn
##schne
##schneid
##schnell
##schnit
##schnitt
##schnittlich
##schon
##school
##schr
##schrank
##schrau
##schraub
##schreib
##schreibung
##schreit
##schreitend
##schri
##schrift
##schritt
##scht
##schte
##schten
##schu
##schub
##schuh
##schul
##schuld
##schuldn
##schuldnerin
##schuldung
##schull
##schullehr
##schung
##schuss
##schutz
##schutzgebiet
##schw
##schwanz
##schwar
##schwe
##schwei
##schwein
##schweiz
##schwemm
##schwer
##schwerpunkt
##schwest
##schwier
##schwitz
##schwung
##schwä
##schä
##schäd
##schädig
##schädlich
##schär
##schätzung
##schön
##schöpf
##schöpfung
##schül
##schüss
##schüt
##schütt
##schütz
##sd
##sdap
##sdorf
##se
##sea
##search
##seb
##sec
##sed
##see
##seei
##seer
##sees
##sef
##seg
##seh
##sehbar
##sehr
##sei
##sein
##seinkomm
##seit
##seitig
##sek
##sekret
##sekretär
##sektor
##sel
##selb
##self
##sell
##seln
##sem
##sen
##senat
##senator
##send
##sendung
##senkirch
##senkung
##senslalom
##sent
##senz
##sep
##septemb
##sequ
##ser
##serbaidsch
##serfahr
##sergebnis
##seri
##serklär
##serlaubnis
##sern
##sersatz
##sert
##serv
##servic
##serwart
##ses
##set
##setz
##setzt
##setzung
##seud
##sex
##sexam
##sextr
##sey
##sf
##sg
##sgb
##sges
##sh
##shar
##sheim
##shi
##ship
##ships
##shir
##shop
##shor
##show
##shut
##si
##sibil
##sibl
##sich
##sicher
##sicht
##sichtig
##sichtigt
##sichtlich
##sid
##sidium
##sie
##sieb
##siedlung
##sieg
##sieh
##sieht
##sif
##sig
##sigfre
##sigfreeid
##sign
##sil
##sim
##sin
##sing
##sinn
##sis
##sit
##situation
##sitz
##sitzung
##sius
##siv
##sk
##ska
##skamm
##skandid
##skap
##skar
##ske
##skeptic
##skepticalscienc
##ski
##skirch
##skis
##sklass
##sklinik
##sko
##skoll
##skomm
##skon
##skontroll
##skop
##skost
##skraft
##skrank
##skris
##skrit
##skrä
##sky
##skörp
##sl
##slation
##sleit
##slett
##slos
##sm
##smann
##sn
##snabrück
##snetz
##so
##sof
##soft
##softwar
##sog
##sohn
##sol
##solid
##solv
##solvenz
##somm
##son
##sond
##song
##sonn
##sor
##sorg
##soweit
##sozi
##sozial
##sp
##spakt
##spaltung
##span
##spani
##spann
##spannung
##spar
##sparent
##sparenz
##spark
##spart
##spartei
##spartn
##sparung
##spaus
##spd
##spe
##speich
##spekt
##spektion
##spektiv
##spektor
##spektrum
##sper
##speriod
##sperr
##sperson
##spezial
##spezif
##spf
##spfleg
##spflich
##spflicht
##sph
##sphas
##sphär
##spiegel
##spiel
##spielerin
##spielraum
##spielsweis
##spielt
##spir
##spital
##spitz
##spl
##splan
##splant
##splanung
##splatz
##splän
##splätz
##spol
##spolit
##spolizei
##spopul
##spor
##sport
##sportl
##sposition
##spot
##spr
##spra
##sprach
##sprachig
##spraxis
##sprech
##sprechend
##sprecherin
##sprechung
##spreis
##spricht
##spring
##springt
##sprinzip
##sprit
##spro
##sprobl
##sproblem
##sproch
##sprodu
##sprodukt
##sprogramm
##sprojekt
##sprozess
##spruch
##sprung
##sprä
##spräsident
##sprü
##sprüch
##sprüf
##sprüfung
##sprün
##spunkt
##spur
##spät
##sr
##ss
##ssa
##ssatz
##ssd
##sse
##ssel
##ssen
##sser
##ssern
##ssich
##ssicher
##ssig
##ssituation
##ssitz
##ssitzung
##ssnahm
##sson
##ssr
##sst
##sstaat
##sstruktur
##ssyst
##ssystem
##st
##sta
##staat
##staatlich
##staatsanwalt
##stab
##stabil
##stad
##stadion
##stadt
##staffel
##stag
##stagram
##stahl
##stal
##stall
##stalt
##stamm
##stand
##standard
##standet
##standort
##stant
##stanti
##stanz
##star
##stark
##start
##stat
##statbestand
##static
##station
##statist
##statt
##stattung
##status
##stau
##staub
##staur
##stbl
##ste
##steam
##stechn
##stechnik
##stechnologi
##steck
##steckt
##sted
##stedt
##steh
##stehend
##steht
##steig
##steiger
##steigt
##steil
##steilnehm
##steilzeit
##stein
##stel
##stell
##stellation
##stellbar
##stellend
##stellerin
##stellig
##stellt
##stellung
##stem
##stemperatur
##sten
##ster
##sterb
##stermin
##stern
##sternis
##sterreich
##stes
##stest
##stet
##stett
##steu
##steuer
##steuert
##steurop
##steuropa
##stex
##stexas
##stg
##sth
##sthe
##stheat
##stheori
##sthet
##sti
##stich
##stie
##stieg
##stif
##stift
##stiftung
##stig
##stil
##still
##stim
##stimm
##stimmt
##stimmung
##stin
##stisch
##stit
##stitel
##stitu
##stitut
##stitution
##sto
##stock
##stoff
##ston
##stopp
##stor
##storb
##stoss
##str
##stra
##straf
##strahl
##strahlt
##strahlung
##strand
##strass
##strategi
##stre
##stream
##streb
##strebung
##streck
##streckt
##strei
##streif
##streit
##stren
##strich
##stritt
##strom
##stron
##strong
##stru
##struktion
##struktur
##strukturier
##strum
##strupp
##sträg
##strö
##ström
##stu
##stub
##stud
##studi
##studio
##studium
##stuf
##stufung
##stuhl
##stund
##sturm
##sturz
##stv
##styl
##stz
##stä
##stäb
##städ
##städt
##stämm
##stän
##ständ
##ständig
##ständisch
##ständlich
##ständnis
##stär
##stärk
##stät
##stätig
##stätt
##stö
##stöck
##störung
##stöss
##stück
##stüm
##stür
##stürm
##stüt
##stütz
##stützung
##su
##sub
##such
##sucht
##suchung
##sul
##sum
##summ
##sun
##sung
##sup
##sur
##sv
##sver
##sverein
##sverfahr
##sverhandl
##sverhältnis
##sverkehr
##sverl
##svertrag
##sw
##swahl
##sweis
##swert
##swürd
##sy
##sych
##syl
##sylvan
##sylvania
##syn
##syndrom
##syst
##system
##sz
##szeit
##szen
##szlig
##sä
##säch
##sächlich
##sächsisch
##säng
##säss
##sät
##sätz
##sätzlich
##säur
##süd
##t
##ta
##tact
##tag
##tagon
##tain
##tainment
##takt
##tal
##tan
##tarif
##tasch
##tat
##tau
##taucht
##tauscht
##tausend
##tax
##taxonomy
##tb
##tc
##tchen
##td
##te
##team
##teau
##tec
##tech
##techn
##technik
##technisch
##technologi
##ted
##tee
##teg
##tegi
##tegr
##tei
##teil
##teilig
##teilnehm
##teilt
##teilung
##tel
##telang
##telefon
##telf
##teli
##tell
##tellekt
##tellig
##teln
##telt
##tem
##temb
##temberg
##tement
##temperatur
##tempor
##ten
##tenberg
##tend
##teneg
##tennis
##tent
##tention
##tentwickl
##teor
##ter
##teri
##termin
##tern
##ternational
##ternehm
##terr
##terrass
##terror
##tert
##terung
##tes
##test
##testet
##tet
##tett
##teu
##tex
##text
##tf
##tg
##th
##thal
##thalb
##the
##theat
##theori
##ther
##thes
##thing
##thiop
##thm
##thos
##thr
##ths
##thur
##ti
##tia
##tial
##tic
##tica
##tick
##ticl
##tico
##tics
##tief
##tien
##tier
##tiert
##tierung
##tif
##tific
##tig
##tigkeit
##tigt
##tigung
##tik
##tika
##tikel
##til
##tilat
##tim
##timent
##tin
##tinent
##tinu
##tinui
##tion
##tional
##tirol
##tisch
##tist
##titel
##titl
##tium
##tius
##tiv
##tiz
##tl
##tler
##tlich
##tm
##tml
##tn
##to
##tocht
##ton
##tool
##top
##topic
##tor
##tour
##tp
##tr
##tra
##tracht
##track
##traf
##trag
##tragt
##tragung
##train
##training
##tran
##transport
##trat
##trau
##traum
##traut
##tre
##trecht
##treff
##trem
##tremulous
##tret
##tretung
##treu
##tri
##trieb
##tritt
##tro
##trock
##troff
##trol
##troll
##true
##try
##trä
##träg
##ts
##tsch
##tschaf
##tschaft
##tsel
##tt
##tta
##ttemberg
##ttp
##tu
##tub
##tum
##tur
##turm
##turn
##turni
##tv
##tw
##twickl
##twoch
##ty
##typ
##tz
##tä
##tät
##tätig
##täu
##tüm
##tür
##u
##ua
##uag
##ual
##ualis
##ualisier
##ualisiert
##ualität
##uan
##uar
##uay
##ub
##uba
##ubel
##ubil
##ubl
##ublik
##ubstanz
##uc
##ucc
##uch
##ucha
##ucht
##uchtet
##uchtig
##uchtt
##uchtung
##uck
##ucky
##ud
##uda
##udad
##uddh
##udent
##udi
##udium
##ue
##ued
##uel
##uell
##uen
##uer
##uerei
##uern
##uert
##uerto
##ues
##uez
##uf
##ufa
##ufakt
##ufaktur
##uff
##uffet
##ufo
##uft
##ufu
##ufung
##ug
##uga
##ugang
##ugend
##ugg
##ugh
##ugi
##ugnis
##ugoslaw
##ugt
##uh
##uhl
##uhr
##ui
##uj
##uk
##uki
##ukl
##ul
##ula
##ulab
##ulabschluss
##ular
##ulation
##uld
##ulein
##ulf
##ulgar
##uli
##ulier
##uliert
##ulin
##ull
##ully
##ulo
##ulous
##ulpt
##ult
##ultan
##ultiv
##ultur
##ulu
##ulus
##ulv
##um
##uma
##umb
##umbia
##ument
##umfang
##umfeld
##umi
##umin
##uminium
##umm
##ummel
##ump
##umpf
##umph
##umping
##umsatz
##umständ
##umwelt
##un
##una
##unabhäng
##unc
##unch
##und
##undert
##undet
##undung
##unfall
##unft
##unfäh
##unfäll
##ung
##ungarn
##ungel
##unglück
##ungs
##ungsan
##ungsangebot
##ungsanlag
##ungsanordn
##ungsanspruch
##ungsansprüch
##ungsanstalt
##ungsantrag
##ungsb
##ungsbedarf
##ungsbeding
##ungsbedür
##ungsbedürft
##ungsbef
##ungsbefugnis
##ungsbehörd
##ungsbereich
##ungsbezüg
##ungsfrist
##ungsgemäss
##ungsgesetz
##ungsgrund
##ungsk
##ungsklag
##ungskomm
##ungskomp
##ungskost
##ungskraft
##ungskrä
##ungskräft
##ungslos
##ungsmassnahm
##ungsmittel
##ungsort
##ungspflicht
##ungsplan
##ungsrecht
##ungssyst
##ungsv
##ungsvereinbar
##ungsverfahr
##ungsverfüg
##ungsverhältnis
##ungsvermög
##ungsverordn
##ungsvertrag
##ungsvoll
##ungsweis
##ungszeit
##ungszeitraum
##uni
##union
##univ
##universität
##unk
##unkel
##unkt
##unktion
##unn
##unnel
##unrein
##unruh
##unsch
##unschwei
##unt
##unterbroch
##untergang
##unterhalt
##unterkunft
##unterlag
##unternehm
##unterricht
##unterschied
##unterstütz
##untersuch
##untry
##unus
##unz
##uo
##up
##upf
##uplo
##upload
##upp
##ups
##ur
##ura
##ural
##uras
##urb
##urc
##urch
##urcht
##urg
##uri
##urity
##urkund
##url
##urlaub
##urm
##urn
##urni
##uro
##urop
##uropa
##uropas
##uropä
##urr
##urrent
##ursach
##ursday
##urt
##urteil
##ury
##urz
##us
##usa
##usal
##usamm
##usb
##usch
##uscon
##usel
##usepp
##useum
##ush
##usik
##usion
##usiv
##usk
##uss
##ussball
##ussell
##ussert
##ussia
##ussion
##usst
##usstsein
##ussy
##ust
##ustik
##ustiz
##uston
##ustr
##ustri
##usätz
##ut
##uta
##utbar
##utch
##utel
##utenant
##utet
##uth
##uthent
##uther
##uti
##utin
##ution
##utlich
##utlicht
##utn
##utnant
##uto
##utr
##utsch
##utschuk
##utt
##utta
##uttl
##utto
##utton
##utung
##utz
##utzend
##utzt
##utzung
##utzut
##utzutag
##uu
##uum
##uv
##uverän
##uw
##ux
##uy
##uz
##v
##va
##vada
##val
##valid
##vall
##valu
##van
##vanc
##vanced
##vangel
##vania
##vant
##var
##vard
##vari
##varian
##variant
##vas
##vat
##vb
##vc
##vd
##ve
##ved
##vel
##veland
##velop
##velopment
##velt
##ven
##venc
##vent
##vention
##venz
##ver
##veran
##veranstalt
##verantwort
##verarbeit
##verb
##verband
##verbind
##verbo
##verbot
##verbrauch
##verbrech
##verbund
##verbänd
##verd
##verdacht
##verein
##vereinbar
##verfahr
##verfolg
##verfüg
##verg
##vergab
##vergenz
##vergleich
##vergüt
##verh
##verhalt
##verhandl
##verhältnis
##verk
##verkauf
##verkauft
##verkehr
##verl
##verlag
##verlauf
##verleih
##verletz
##verletzt
##verlust
##verläss
##verm
##vermiet
##vermög
##vern
##verordn
##verpflicht
##vers
##versamml
##versch
##verschmutz
##versich
##versicher
##versicht
##version
##versorg
##verständ
##verständnis
##versuch
##vert
##vertei
##verteid
##verteil
##vertra
##vertrag
##vertrau
##vertret
##verträg
##verw
##verwalt
##very
##verz
##verzeichnis
##veröffent
##ves
##vest
##vet
##vey
##vfg
##vg
##vgh
##vgl
##vh
##vi
##via
##vic
##vid
##video
##videos
##vie
##viel
##vielfalt
##vier
##viert
##viertel
##view
##views
##viewtopic
##vik
##vill
##villa
##vin
##vinz
##vious
##vir
##viron
##vironment
##vis
##vision
##visor
##vit
##vl
##vm
##vn
##vo
##voe
##vogel
##voh
##vok
##vol
##volk
##voll
##vollmächt
##vollstreck
##vollzug
##volum
##volution
##vom
##von
##vor
##voraus
##voraussetz
##vorbehalt
##vorbring
##vorgang
##vorgäng
##vorhab
##vorhersag
##vorkomm
##vorlag
##vorm
##vormittag
##vorp
##vorpomm
##vorschlag
##vorschläg
##vorschrift
##vorsitz
##vorsorg
##vorstand
##vorsteh
##vorstell
##vort
##vorteil
##vortrag
##vp
##vr
##vre
##vs
##vt
##vu
##vv
##vw
##vy
##vö
##vögel
##völk
##völker
##w
##wa
##wach
##wachs
##wachstum
##wacht
##wachung
##wad
##waff
##waffnung
##wag
##wahl
##wahr
##wahrnehm
##wahrschein
##wahrung
##wak
##wal
##wald
##wall
##walt
##waltung
##waltungsgericht
##wan
##wand
##wandel
##wandeln
##wander
##wandlung
##wang
##wann
##wapp
##war
##ward
##warf
##warnung
##wart
##wartet
##wartung
##warz
##was
##wass
##watch
##way
##ways
##wc
##wd
##we
##wealth
##web
##wech
##wechsel
##wechseln
##wechselt
##wechslung
##weck
##weckt
##wed
##wee
##ween
##weet
##weg
##wegung
##wehr
##wei
##weich
##weiger
##weih
##weiht
##weil
##weilig
##wein
##weis
##weislich
##weiss
##weist
##weisung
##weit
##weiter
##weitet
##weitung
##wel
##well
##welt
##weltcup
##weltmeist
##wen
##wend
##wendbar
##wendet
##wendung
##wenn
##wer
##werb
##werbung
##werd
##werf
##werk
##werkstatt
##wert
##wertet
##wertig
##wertung
##wes
##wesend
##west
##westfal
##westfäl
##westlich
##wett
##wettb
##wettbewerb
##wf
##wg
##wgo
##wh
##wi
##wich
##wicht
##wichtig
##wick
##wickelt
##wicklung
##wid
##wider
##widr
##widrig
##wie
##wied
##wieg
##wiegend
##wien
##wier
##wies
##wieweit
##wig
##wik
##wiki
##wikipedia
##wil
##wilhelm
##will
##willig
##win
##wind
##windet
##windig
##wing
##winkel
##wint
##wir
##wird
##wirft
##wirk
##wirkend
##wirklich
##wirksam
##wirkt
##wirkung
##wirt
##wirtscha
##wirtschaf
##wirtschaft
##wirtschaftet
##wirtschaftslehr
##wiss
##wissenschaft
##wissenschaftl
##witt
##wittgenstein
##witz
##wj
##wjet
##wl
##wm
##wn
##wo
##woch
##wog
##wohl
##wohn
##wohnung
##wol
##wolf
##woll
##wood
##wor
##worb
##word
##wordpress
##worf
##work
##world
##wort
##worth
##wp
##wr
##writ
##ws
##wt
##wu
##wuch
##wunsch
##wur
##wurf
##wurst
##wurzel
##ww
##www
##wy
##wä
##wächt
##wägung
##wähl
##währung
##wäl
##wäld
##wält
##wältig
##wältin
##wänd
##wär
##wärm
##wärmung
##wärt
##wärtig
##wäsch
##wäss
##wässert
##wöch
##wört
##wün
##wünsch
##wür
##würd
##würdig
##würf
##württ
##württemberg
##x
##xb
##xe
##xen
##xfj
##xi
##xid
##xis
##xit
##xn
##xp
##xs
##xt
##xtrem
##xx
##xy
##y
##ya
##yal
##yan
##yball
##yc
##ych
##yd
##ydra
##ydraul
##ydro
##ye
##yen
##yeong
##yer
##yes
##yg
##ying
##yk
##yl
##yll
##ylon
##ym
##ymb
##ymbol
##ymmet
##ymn
##ymnas
##ymnasium
##ymp
##ympath
##ymph
##ympos
##ympt
##yn
##ynam
##ynast
##ynasti
##yo
##yon
##youtub
##yp
##ypag
##ypagesc
##ypoth
##yr
##yright
##ys
##ysi
##ysil
##ysilvia
##ysl
##yst
##ystem
##yt
##yth
##ythm
##ywood
##yz
##z
##za
##zahl
##zahlt
##zahlung
##zahn
##zan
##zantin
##zb
##zc
##zd
##ze
##zed
##zeg
##zehn
##zehnt
##zei
##zeich
##zeichn
##zeichnet
##zeichnis
##zeichnung
##zeig
##zeigt
##zeil
##zeit
##zeitig
##zeitlich
##zeitpunkt
##zeitraum
##zeitschrift
##zeitung
##zek
##zel
##zell
##zeln
##zelt
##zem
##zemb
##zemed
##zen
##zend
##zent
##zentimet
##zentr
##zentral
##zentrum
##zenz
##zep
##zept
##zeptabel
##zeptanz
##zeption
##zer
##zern
##zert
##zes
##zess
##zessin
##zession
##zet
##zettel
##zeu
##zeug
##zeugnis
##zeugt
##zeugung
##zew
##zg
##zgl
##zh
##zheim
##zi
##zia
##zial
##zicht
##zid
##zie
##zieh
##ziehend
##zieht
##ziehung
##ziehungsweis
##ziel
##ziell
##zien
##zier
##ziert
##zies
##zif
##ziff
##zifik
##zig
##zil
##zimm
##zimmerwohn
##zin
##zins
##zinssatz
##zio
##zip
##ziplin
##zir
##zirk
##zisch
##zit
##zk
##zl
##zlich
##zm
##zn
##znei
##zo
##zog
##zogt
##zoll
##zon
##zr
##zs
##zt
##zte
##zten
##zu
##zubild
##zubring
##zucht
##zuck
##zuf
##zufind
##zufolg
##zufried
##zufüg
##zuführ
##zug
##zugang
##zugeb
##zugeh
##zugehör
##zugreif
##zugäng
##zuhalt
##zuheb
##zukomm
##zul
##zulag
##zuland
##zulass
##zuleg
##zulern
##zuläss
##zulös
##zum
##zumach
##zun
##zunehm
##zung
##zur
##zurechn
##zus
##zusag
##zusamm
##zusammenhang
##zusatz
##zusch
##zuschlag
##zuseh
##zusetz
##zusp
##zusprech
##zustand
##zustell
##zut
##zutag
##zuteil
##zutrag
##zutreff
##zutret
##zuzieh
##zw
##zwald
##zwang
##zwanzig
##zwe
##zweck
##zwei
##zweig
##zwisch
##zwung
##zy
##zyklus
##zylind
##zz
##zza
##zzo
##zä
##zähl
##zählung
##zöll
##zös
##zü
##züg
##zügig
##züglich
##{
##|
##}
##~
##°
##ä
##äb
##äch
##ächeln
##ächlich
##ächs
##ächsisch
##ächt
##ächtig
##ächtnis
##äck
##äd
##ädag
##ädagog
##ädch
##ädt
##äe
##äen
##äf
##äft
##äftig
##äftsführ
##äg
##äh
##ähl
##ählt
##ähn
##ähnlich
##ähr
##ährend
##ährt
##ährung
##äisch
##äl
##äld
##älft
##äll
##ällig
##ällt
##ält
##ältig
##ältigt
##älz
##äm
##ämlich
##ämm
##ämpf
##ämpft
##ämpfung
##ämt
##än
##änd
##änder
##ändert
##ändig
##ändisch
##ändl
##äng
##ängel
##änger
##änglich
##ängnis
##ängt
##änk
##änn
##änom
##änz
##äpst
##äpstlich
##äqu
##är
##ärch
##ärkt
##ärm
##ärmt
##ärt
##ärtn
##ärz
##ärzt
##ärztin
##ärztlich
##äs
##äss
##ässt
##äst
##ästig
##ästin
##ät
##ätest
##ätig
##ätigt
##ätsel
##ätt
##ätz
##ätzch
##ätzlich
##ätzt
##ätzung
##äu
##äub
##äud
##äuf
##äufig
##äuft
##äul
##äum
##äumnis
##äumt
##äur
##äus
##äuschung
##äuss
##äussert
##ö
##öch
##öck
##öd
##ödi
##öff
##öffent
##öffn
##öffnet
##öffnung
##ög
##öger
##öglich
##öh
##öhm
##öhn
##öhnt
##öhnung
##öhr
##ök
##ökonom
##öl
##ölb
##ölf
##ölk
##öll
##ölz
##öm
##ömm
##ön
##önig
##önt
##öntg
##öpf
##öpft
##öpfung
##ör
##örd
##örder
##ördert
##örg
##örm
##örn
##örp
##örpert
##ört
##örtert
##örtlich
##örung
##ös
##öscht
##öss
##össt
##öst
##österreich
##östlich
##ösung
##öt
##ötet
##ött
##ötz
##ötzlich
##öv
##öz
##ü
##üb
##übergang
##übernahm
##übertrag
##überw
##überwach
##übt
##übung
##üch
##üchs
##ücht
##üchtig
##ück
##ücksich
##ücksicht
##ücksichtigt
##ückt
##üd
##üe
##üf
##üg
##ügel
##ügt
##üh
##ühl
##ühm
##ühmt
##ühr
##ührt
##ührung
##ühung
##ül
##üll
##ülmaschin
##ült
##üm
##ümm
##ün
##ünd
##ündel
##ündet
##ündig
##ündigt
##ündnis
##ündung
##ünf
##ünft
##ünkt
##ünktlich
##ünn
##ünstig
##ünstl
##ür
##ürf
##ürg
##ürk
##ürm
##ürn
##üro
##ürt
##ürtel
##ürttemberg
##ürz
##ürzt
##ürzung
##üs
##üss
##üssel
##üsseld
##üsselt
##üssig
##üst
##üstet
##üt
##ütet
##ütt
##üttel
##ütteln
##üttert
##üttet
##ütung
##ütz
##ützt
##–
##—
##…
##€
$
%
&
'
(
)
*
+
,
-
.
/
0
1
10
100
11
12
13
14
15
16
17
18
19
2
20
21
22
23
24
25
26
27
28
29
3
30
31
32
33
34
35
36
37
38
39
4
40
41
42
43
44
45
46
47
48
49
5
50
51
52
53
54
55
56
57
58
59
6
60
61
62
63
64
65
66
67
68
69
7
70
71
72
73
74
75
76
77
78
79
8
80
81
82
83
84
85
86
87
88
89
9
90
91
92
93
94
95
96
97
98
99
:
;
<
=
>
?
@
[
\
]
^
_
`
a
aa
aach
aachen
aachener
aalen
aao
aar
aargau
aarhus
aaron
ab
abarth
abb
abbas
abbau
abbauen
abberufung
abbey
abbiegen
abbild
abbilden
abbildung
abbildungen
abbott
abbrech
abbrechen
abbringen
abbruch
abc
abchasien
abd
abdallah
abdank
abdankung
abdecken
abdeckung
abdel
abdeslam
abdruck
abdul
abdullah
abdämpf
abe
abeba
abel
aben
abend
abendbrot
abende
abenden
abendess
abendessen
abendkasse
abendkleid
abendland
abendlandes
abendliche
abendlichen
abendländischen
abendmahl
abends
abendsonne
abendstunden
abenteu
abenteuer
abenteuerliche
abenteuerlichen
abenteuern
abenteurer
aber
aberdeen
aberglaube
aberglauben
aberkannt
aberkennung
abermal
abermals
abf
abfahrt
abfahrten
abfall
abfallenden
abfertigung
abfind
abfinden
abfindung
abfindungen
abflug
abfluss
abfolge
abfrage
abfuhr
abfäll
abfälle
abfällen
abfällig
abführ
abg
abgab
abgabe
abgaben
abgang
abgas
abgase
abgasnorm
abgasreinigung
abgasskandal
abgaswerte
abgearbeitet
abgeb
abgebaut
abgeben
abgebildet
abgebildete
abgebildeten
abgebrannt
abgebrannten
abgebroch
abgebrochen
abgebrochene
abgebrochenen
abgedeckt
abgedrosch
abgedruckt
abgefahren
abgefangen
abgefertigt
abgefeuert
abgefragt
abgefälschten
abgeführt
abgegeb
abgegeben
abgegebenen
abgehakt
abgehalt
abgehalten
abgehoben
abgeholt
abgehängt
abgehört
abgek
abgeklärt
abgekommen
abgekürzt
abgel
abgelauf
abgelaufen
abgelaufene
abgelaufenen
abgelegene
abgelegenen
abgelegt
abgelehnt
abgelehnte
abgelehnten
abgeleitet
abgeleitete
abgeleiteten
abgelenkt
abgeliefert
abgelöst
abgemeldet
abgenomm
abgenommen
abgeord
abgeordnet
abgeordnete
abgeordneten
abgeordneter
abgerechnet
abgeriss
abgerissen
abgerissene
abgerissenen
abgeruf
abgerufen
abgerundet
abgerundeten
abgerutscht
abgesagt
abgesch
abgeschafft
abgeschaltet
abgeschiedenheit
abgeschirmt
abgeschlagen
abgeschlagenen
abgeschleppt
abgeschloss
abgeschlossen
abgeschlossene
abgeschlossenen
abgeschlossener
abgeschlossenes
abgeschnitt
abgeschnitten
abgeschoben
abgeschossen
abgeschreckt
abgeschrieben
abgesegnet
abgeseh
abgesehen
abgesenkt
abgesetzt
abgesetzten
abgesichert
abgespannt
abgespeckte
abgesperrt
abgesperrten
abgespielt
abgesprochen
abgestand
abgestellt
abgestellte
abgestellten
abgestiegen
abgestimmt
abgestimmte
abgestimmten
abgestraft
abgestürzt
abgestürzten
abget
abgetakelt
abgetan
abgetr
abgetrag
abgetragen
abgetrennt
abgetrennten
abgetret
abgetreten
abgew
abgewartet
abgewehrt
abgewendet
abgewickelt
abgewies
abgewiesen
abgewinnen
abgewogen
abgeworfen
abgewählt
abgezog
abgezogen
abgeändert
abgleich
abgleit
abgrenz
abgrenzung
abgrund
abgründ
abgründe
abgänge
abgängen
abhalten
abhanden
abhandlung
abhandlungen
abhang
abheben
abhilfe
abhol
abholen
abholung
abholzung
abhäng
abhängen
abhängig
abhängige
abhängigen
abhängigkeit
abhängigkeiten
abhören
abi
abitur
abiturienten
abk
abkehr
abkomm
abkommen
abkommens
abkühlen
abkühlung
abkürz
abkürzung
abkürzungen
abl
ablage
ablagerungen
ablauf
ablaufen
ableben
ablegen
ableger
ablehn
ablehnen
ablehnend
ablehnende
ablehnenden
ablehnung
ableit
ableiten
ableitung
ablenk
ablenken
ablenkung
ablesen
ablichten
abliefern
abläufe
ablös
ablöse
ablösefrei
ablösen
ablösesumme
ablösung
abm
abmach
abmachung
abmachungen
abmahn
abmahnung
abmahnungen
abmess
abmessungen
abnahm
abnahme
abnehm
abnehmen
abnehmer
abneig
abneigung
abnutz
abo
abonnement
abonnements
abonnenten
abordnung
aborigines
abos
about
abov
abpfiff
abpraller
abraham
abrahams
abramowitsch
abrams
abrat
abrechn
abrechnung
abrechnungen
abred
abrede
abreis
abreise
abreisen
abreiss
abreissen
abriss
abrissarbeiten
abruf
abrufbar
abrufen
abrupt
abrupten
abrutsch
abrutschen
abrüstung
abs
absag
absage
absagen
absatz
absatzmarkt
absatzzahlen
absch
abschaff
abschaffen
abschaffung
abschalten
abschaltung
abschaum
abscheu
abscheuliche
abscheulichen
abschi
abschieb
abschiebehaft
abschiebung
abschiebungen
abschied
abschiedsbrief
abschiedsspiel
abschiess
abschl
abschlag
abschliess
abschliessen
abschliessend
abschliessende
abschliessenden
abschloss
abschlus
abschluss
abschlussfeier
abschläge
abschlüsse
abschlüssen
abschneiden
abschnitt
abschnitte
abschnitten
abschnitts
abschottung
abschreck
abschrecken
abschreckende
abschreckung
abschreib
abschreiben
abschreibungen
abschrift
abschuss
abschwung
abschwäch
abschwächung
abschätz
abschätzen
abseh
absehbar
absehbare
absehbaren
absehbarer
abseit
abseits
absender
absenk
absenkung
absetzen
absetzung
absicher
absichern
absicherung
absicht
absichten
absichtlich
absichts
absink
absol
absolut
absolute
absoluten
absoluter
absolutes
absolv
absolvent
absolventen
absolvi
absolvieren
absolviert
absolvierte
absolvierten
abspalt
abspaltung
abspann
absperr
absperrung
absperrungen
abspielen
absprach
absprache
absprachen
absprung
abst
abstamm
abstammung
abstand
abstecher
absteig
absteigen
absteiger
abstellen
abstellraum
abstieg
abstiegs
abstiegsbedrohte
abstiegsgefährdeten
abstiegskampf
abstiegsplatz
abstiegszone
abstimm
abstimmen
abstimmung
abstimmungen
abstinenz
abstoss
abstra
abstrakt
abstrakte
abstrakten
abstraktion
abstrich
abstriche
abstufung
abstumpf
absturz
absturzes
absturzstelle
abständ
abstände
abständen
abstürz
absur
absurd
absurde
absurden
absurdität
absurdum
absätze
absätzen
abt
abtei
abteil
abteilung
abteilungen
abteilungs
abtrag
abtransport
abtransportiert
abtreibung
abtreibungen
abtrennung
abtret
abtreten
abtrieb
abtrünnigen
abu
abwahl
abwanderung
abwandlung
abwarten
abwass
abwasser
abwechsel
abwechselnd
abwechsl
abwechslung
abwechslungs
abwegig
abwehr
abwehrchef
abwehren
abwehrseite
abwehrspieler
abweich
abweichen
abweichend
abweichende
abweichenden
abweichler
abweichung
abweichungen
abweis
abwend
abwenden
abwendung
abwert
abwertung
abwes
abwesend
abwesenheit
abwickl
abwicklung
abwrackprämie
abwurf
abwäg
abwägung
abwärme
abwärts
abwärtstr
abwärtstrend
abwässer
abzeichen
abzeichnenden
abziehen
abzock
abzocke
abzu
abzubauen
abzug
abzugeb
abzugeben
abzul
abzulehn
abzuschaffen
abzusehen
abzustell
abzuweis
abzuänd
abzweig
abzweigung
abzüg
abzüge
abzüglich
abänder
ac
acad
academy
acadmie
acc
access
accessoire
accessoires
accommodation
account
accounts
ace
acer
ach
achenbach
achilles
achillessehne
achim
achs
achse
achsel
achseln
achsen
acht
achte
achteinhalb
achtel
achtelfinal
achtelfinale
achten
achter
achterbahn
achtet
achtete
achtjährige
achtjährigen
achtlos
achtmal
achtmalige
achtsamkeit
achtung
achtungserfolg
achtzehn
achtzehnten
achtzig
achtziger
achtzigerjahren
achtzigern
ack
acker
ackerbau
ackerflächen
ackerland
ackermann
acs
act
acta
action
actionfilm
active
acts
actually
ad
ada
adac
adalbert
adam
adams
adap
adapter
adaption
adaptive
adaptives
add
addi
addiert
addis
addition
ade
adel
adelaide
adele
adelheid
adeligen
adels
adelsfamilie
adelsstand
aden
adenauer
ader
adern
adfc
adhs
adi
adidas
adil
adipositas
adjektiv
adjutant
adjutanten
adl
adler
adlige
adligen
adlon
administ
administrador
administrat
administration
administrative
administrativen
administrator
administratoren
admiral
adnan
adobe
adolf
adolph
adopt
adoptieren
adoptiert
adoption
adorf
adorno
adr
adrenalin
adress
adressaten
adressbuch
adresse
adressen
adressiert
adrett
adria
adrian
adriana
adriano
ads
advanced
advent
advents
adventszeit
adventure
advisory
advokat
advokaten
adäquat
adäquate
adäquaten
ae
aeg
aek
aer
aero
aerodynamik
aeuv
af
afc
afd
aff
affe
affekt
affen
affing
affinität
affleck
affront
affär
affäre
affären
afghan
afghane
afghanen
afghanische
afghanischen
afghanischer
afghanistan
afghanistans
afp
afr
africa
african
afrika
afrikan
afrikaner
afrikanische
afrikanischen
afrikanischer
afrikas
afrin
afro
afroamerikan
afroamerikaner
aft
after
afu
ag
agassi
agatha
agathe
agb
age
agen
agency
agenda
agent
agenten
agentin
agentur
agenturen
agg
aggreg
aggregat
aggress
aggression
aggressionen
aggressiv
aggressive
aggressiven
aggressiver
aggressives
aggressivität
aggressor
agi
agieren
agierende
agierenden
agiert
agierte
agierten
agil
agile
agilen
agilität
agitation
agn
agnes
agnieszka
ago
agr
agrar
agrarminister
agrarpolit
agüero
ah
ahk
ahl
ahlbeck
ahlen
ahlhaus
ahlmann
ahm
ahmad
ahmadinedschad
ahmed
ahmet
ahn
ahnen
ahnt
ahnte
ahnten
ahnung
ahnungslos
ahnungslose
ahnungslosen
ahorn
ahr
ahrens
aht
ai
aibling
aichach
aichacher
aid
aida
aids
aigner
ailton
aiman
aindling
air
airbag
airbags
airbnb
airbus
aircraft
aires
airlin
airline
airlines
airport
airports
airways
aiwanger
aj
ajatollah
ajax
ak
akad
akadem
akademi
akademie
akademien
akademiker
akademische
akademischen
akademischer
aken
akener
akin
akk
akkord
akkordeon
akkreditierung
akku
akkulaufzeit
akkurat
akkus
akn
akp
akquisition
akribisch
akrobatik
akropolis
akt
akte
akten
akteneinsicht
aktenzeichen
akteur
akteure
akteuren
akti
aktie
aktien
aktienfonds
aktienindex
aktienkurs
aktienkurse
aktienmarkt
aktienmärkte
aktienmärkten
aktion
aktionen
aktionismus
aktions
aktionsbündnis
aktionsplan
aktionstag
aktionär
aktionäre
aktionären
aktiv
aktive
aktiven
aktiver
aktives
aktivieren
aktiviert
aktivierung
aktivist
aktivisten
aktivistin
aktivität
aktivitäten
aktivsten
aktualis
aktualisi
aktualisier
aktualisiert
aktualisierte
aktualisierten
aktualisierung
aktualität
aktuell
aktuelle
aktuellem
aktuellen
aktueller
aktuelles
aktuellsten
akust
akustik
akustisch
akustische
akustischen
akut
akute
akuten
akuter
akw
akws
akzent
akzente
akzep
akzept
akzeptabel
akzeptable
akzeptablen
akzeptanz
akzepti
akzeptier
akzeptiere
akzeptieren
akzeptiert
akzeptierte
akzeptierten
al
ala
alaba
alabama
alain
alan
alarm
alarmanlage
alarmglocken
alarmi
alarmiert
alarmierte
alarmierten
alarmierung
alarmstufe
alarmsystem
alaska
alb
alba
alban
albaner
albani
albanien
albanische
albanischen
alben
albern
alberne
albernen
albers
albert
alberta
alberto
albig
albin
albion
albrecht
albtraum
album
albums
aldekerk
aldi
aldo
ale
alec
alegre
alejandro
aleksandar
aleksander
alemannia
aleppo
aless
alessandro
alessio
alex
alexa
alexand
alexander
alexanderplatz
alexanders
alexandra
alexandre
alexandria
alexei
alexej
alexis
alf
alfa
alfon
alfons
alfonso
alfred
alfredo
alg
algen
algeri
algerien
algerier
algerische
algerischen
algier
algor
algorithmen
algorithmus
ali
alias
alibaba
alibi
alic
alice
alicia
aliens
alina
aline
alison
alitalia
aljona
alkohol
alkoholgeruch
alkoholiker
alkoholische
alkoholischen
alkoholisiert
alkoholisierte
alkoholisierten
alkoholkonsum
alkoholtest
alkoholverbot
all
allah
allan
alldem
alle
alled
alledem
allee
alleen
allein
alleine
alleinerziehende
alleinerziehenden
alleingang
alleingänge
alleinige
alleinigen
alleiniger
alleinstehende
alleinstellungsmerkmal
allem
allemal
allen
allendorf
allenfall
allenfalls
allens
allenthalben
aller
allerb
allerbesten
allerding
allerdings
allererst
allererste
allerersten
allergie
allergien
allergiker
allergisch
allergische
allergischen
allergrössten
allerhand
allerheiligen
allerlei
allerletzte
allerletzten
allermeisten
allerorten
allerwenigsten
alles
allesamt
allezeit
allgegenwärtig
allgegenwärtigen
allgemein
allgemeine
allgemeinen
allgemeiner
allgemeines
allgemeingült
allgemeinheit
allgäu
allgäuer
alli
alliance
allianz
allianzen
alliiert
alliierte
alliierten
allison
alljährlich
alljährliche
alljährlichen
allmacht
allmächtigen
allmäh
allmählich
allmähliche
allofs
allrad
allradantrieb
allrounder
allseits
allstedt
allstedter
alltag
alltags
alltagsleben
alltä
alltäglich
alltägliche
alltäglichen
allumfass
allzeit
allzu
alm
alma
almeida
almosen
almunia
alois
alonso
aloys
alp
alpe
alpen
alpenrepublik
alph
alpha
alphabet
alpina
alpine
alpinen
alptraum
als
alsbald
alsdann
alsleben
also
alster
alstom
alt
altar
altarbild
altarraum
altars
altbau
altbauten
altbauwohnung
altbekannte
altbekannten
alte
altehrwürdigen
alteingesessenen
altem
alten
altenberg
altenberger
altenburg
altenburger
altenheim
altenmünster
altenpflege
altenpfleger
altenstadt
alter
altern
alternativ
alternative
alternativen
alternativer
alternatives
alternativlos
alternde
alternden
alters
altersarmut
altersbedingten
altersgenossen
altersgrenz
altersgrenze
altersgruppe
altersgruppen
altersgründen
altersheim
altersklasse
altersklassen
altersrent
altersteilzeit
altersvorsorg
altersvorsorge
altert
altertum
alterung
altes
althaus
altintop
altkanzler
altkreis
altlasten
altmaier
altmann
altmark
altmarkt
altmeister
altmod
altmodisch
altmodischen
alto
altona
altonaer
altpapier
altpreussischen
altstadt
altäre
altötting
alu
alufelgen
aluminium
alvaro
alves
alwin
alzheimer
am
amadeus
amal
amalia
amalie
amanda
amann
amar
amarillas
amat
amateur
amateure
amateuren
amateurhaft
amateurliga
amaz
amazon
amazonas
amazons
amb
amber
amberg
ambient
ambiente
ambitionen
ambitioniert
ambitionierte
ambitionierten
ambitioniertes
ambivalent
ambivalenz
ambrosius
ambul
ambulant
ambulante
ambulanten
ambulanter
ambulanz
amd
ameisen
amelia
amelie
amen
amend
amer
amerell
america
american
amerika
amerikan
amerikaner
amerikanerin
amerikanern
amerikaners
amerikanische
amerikanischem
amerikanischen
amerikanischer
amerikanisches
amerikas
amg
amin
aminosäuren
amir
amis
amman
ammann
amme
ammersee
ammon
ammoniak
amnestie
amnesty
amoklauf
amokläufer
amor
amos
amp
ampel
ampelanlage
ampeln
amph
amphibien
amphitheater
amphoe
amputiert
amri
amrica
amsdorf
amsel
amst
amsterdam
amsterdamer
amt
amtes
amti
amtier
amtierende
amtierenden
amtierender
amtierte
amtlich
amtliche
amtlichen
amtmann
amts
amtsantritt
amtsbezirk
amtsblatt
amtseid
amtseinführung
amtsenthebung
amtsenthebungs
amtsführung
amtsgericht
amtsgerichts
amtsgeschäfte
amtshandlung
amtsinhaber
amtskollege
amtskollegen
amtsleiter
amtsperiode
amtsrichter
amtssitz
amtssprache
amtsträger
amtsvorgänger
amtszeit
amtszeiten
amtsübernahme
amy
amüs
amüsant
amüsante
amüsanten
amüsieren
amüsiert
an
ana
anadolu
anaheim
anal
analog
analoge
analogen
analogie
analy
analys
analyse
analysen
analysi
analysieren
analysiert
analysierte
analysierten
analysis
analyst
analysten
analytica
analytics
analytiker
analytische
analytischen
ananas
anand
anarchie
anarchisten
anastasia
anat
anatoli
anatomie
anb
anbau
anbaufläche
anbauten
anbeginn
anbel
anbelangt
anberaumten
anbet
anbetracht
anbetung
anbiet
anbieten
anbieter
anbietern
anbieters
anbietet
anbind
anbindung
anblick
anbringen
anbruch
anc
ancelotti
and
andacht
andalus
andalusien
andau
andauern
andauernd
andauernde
andauernden
anden
andenken
ander
andere
anderem
anderen
anderenfalls
anderer
andererseit
andererseits
anderes
anderlecht
anderm
andermal
andern
andernfalls
andernorts
anders
andersdenkende
anderseits
andersen
andersherum
anderson
andersson
anderswo
andert
anderthalb
anderweit
anderweitig
andeutung
andeutungen
andi
andorra
andr
andrang
andre
andrea
andreas
andrei
andrej
andrer
andres
andrew
andrews
andro
androh
androhung
android
andrs
andrzej
andy
andächtig
aneignung
aneinand
aneinander
anekdote
anekdoten
anerbieten
anerk
anerkannt
anerkannte
anerkannten
anerkannter
anerkenn
anerkennen
anerkennend
anerkennens
anerkennung
anette
anf
anfahren
anfahrt
anfall
anfallende
anfallenden
anfang
anfange
anfangen
anfangs
anfangsformation
anfangsjahren
anfangsphase
anfangszeit
anfassen
anfecht
anfeindungen
anfertigen
anfertigung
anfield
anfing
anflug
anforder
anforderung
anforderungen
anforderungs
anfrag
anfrage
anfragen
anfäll
anfälle
anfällig
anfälliger
anfälligkeit
anfäng
anfänge
anfängen
anfänger
anfänglich
anfängliche
anfänglichen
anfänglicher
anfängt
anführ
anführen
anführer
ang
angab
angabe
angaben
angeb
angebaut
angebauten
angeben
angeblich
angebliche
angeblichen
angeblicher
angebliches
angeborene
angeborenen
angebot
angebote
angeboten
angebotene
angebotenen
angebotes
angebots
angebracht
angebrachte
angebrachten
angebunden
angedacht
angedachte
angedachten
angedeutet
angedroht
angedrohten
angeeignet
angeekelt
angef
angefahren
angefallen
angefang
angefangen
angefasst
angefertigt
angefertigten
angefocht
angefochten
angefordert
angefragt
angeführt
angeführte
angeführten
angefüllt
angegangen
angegeb
angegeben
angegebene
angegebenen
angegliedert
angegriff
angegriffen
angegriffenen
angeh
angehalt
angehalten
angehen
angehende
angehenden
angeheuert
angehob
angehoben
angeht
angehäuft
angehör
angehören
angehörige
angehörigen
angehöriger
angehört
angeklag
angeklagt
angeklagte
angeklagten
angeklagter
angekomm
angekommen
angekün
angekünd
angekündigt
angekündigte
angekündigten
angel
angela
angelangt
angelaufen
angeleg
angelegenheit
angelegenheiten
angelegt
angelegte
angelegten
angelegter
angelegtes
angelehnt
angeles
angeliefert
angelika
angelina
angelique
angeln
angelo
angelockt
angelpunkt
angels
angemel
angemeldet
angemeldete
angemeldeten
angemess
angemessen
angemessene
angemessenen
angemessener
angemessenes
angemietet
angemieteten
angenehm
angenehme
angenehmen
angenehmer
angenehmes
angenomm
angenommen
angenommene
angenommenen
angeordnet
angeordnete
angeordneten
angep
angepackt
angepasst
angepasste
angepassten
angepeilte
angepeilten
angepfiffen
anger
angerechnet
angeregt
angereichert
angereist
angereisten
angerer
angerichtet
angeruf
angerufen
angesagt
angesagte
angesagten
angesammelt
angesch
angeschafft
angeschaut
angeschlag
angeschlagen
angeschlagene
angeschlagenen
angeschloss
angeschlossen
angeschlossene
angeschlossenen
angeschossen
angeschrieben
angeseh
angesehen
angesehene
angesehenen
angesehener
angesehenes
angesehensten
angesetzt
angesetzte
angesetzten
angesicht
angesichts
angesiedelt
angesiedelte
angesiedelten
angesp
angespannt
angespannte
angespannten
angesproch
angesprochen
angesprochene
angesprochenen
angestammten
angesteckt
angestellt
angestellte
angestellten
angestellter
angesteuert
angestiegen
angestossen
angestr
angestrebt
angestrebte
angestrebten
angestrengt
angetan
angetret
angetreten
angetretenen
angetrieb
angetrieben
angetriebene
angetriebenen
angetroffen
angetrunk
angewachsen
angewand
angewandt
angewandte
angewandten
angewendet
angewies
angewiesen
angeworben
angezeigt
angezeigten
angezog
angezogen
angezweifelt
angezündet
angie
angl
angleich
angleichung
angler
angola
angreif
angreifbar
angreifen
angreifer
angreifern
angreifers
angrenz
angrenzend
angrenzende
angrenzenden
angriff
angriffe
angriffen
angriffs
angriffsspiel
angst
angstgegner
angstschlotternd
angstvoll
angus
anh
anhaben
anhalt
anhalten
anhaltend
anhaltende
anhaltenden
anhaltender
anhalter
anhaltischen
anhaltspunkt
anhaltspunkte
anhand
anhang
anheb
anheben
anhebung
anheit
anheiter
anhieb
anhäng
anhänger
anhängern
anhängerschaft
anhänglichkeit
anhöhe
anhör
anhören
anhörung
anhörungen
anika
anim
animation
animationen
animationsfilm
anime
animi
animiert
animierte
animierten
anis
aniston
anita
anja
ank
ankara
ankauf
anke
anker
anklag
anklage
anklagebank
anklagebehörde
anklagen
anklageschrift
anklam
anklang
ankläger
anknüpfen
ankomm
ankommen
ankommenden
ankommt
ankunft
ankurbel
ankurbeln
ankünd
ankündigung
ankündigungen
anlag
anlage
anlagen
anlagenbau
anlageziel
anlass
anlauf
anlaufpunkt
anlaufstelle
anlaufstellen
anleg
anlegen
anleger
anlegern
anlehn
anlehnung
anleih
anleihe
anleihen
anleit
anleitung
anleitungen
anlieferung
anlieg
anliegen
anliegenden
anlieger
anliegern
anlock
anlocken
anläss
anlässe
anlässen
anlässlich
anläufe
anläufen
anm
anmass
anmel
anmeld
anmelden
anmeldung
anmeldungen
anmerk
anmerkung
anmerkungen
anmietung
anmut
anmutende
anmutenden
anmutig
anmutigen
anmutung
ann
anna
annaburg
annaburger
annahm
annahme
annahmen
annalen
annalena
annan
annas
anne
annegret
annehm
annehmbar
annehmen
annehmlichkeiten
anneli
annelie
anneliese
annemarie
annen
annett
annette
annexion
anni
annie
annika
anno
annoncen
annulli
annullier
annulliert
annullierung
annäh
annäher
annähernd
annäherung
anomali
anonym
anonyme
anonymen
anonymer
anonymität
anonymous
anordn
anordnung
anordnungen
anp
anpacken
anpass
anpassen
anpassung
anpassungen
anpassungsfäh
anpfiff
anraten
anrath
anrather
anrechn
anrechnung
anrecht
anrede
anreg
anregen
anregung
anregungen
anrei
anreich
anreicher
anreicherung
anreis
anreise
anreisen
anreiz
anreize
anrichten
anruf
anrufe
anrufen
anrufer
ans
ansa
ansage
ansagen
ansammlung
ansatz
ansatzweise
ansbach
ansch
anschaff
anschaffen
anschaffung
anschaffungen
anschaffungs
anschau
anschauen
anschaulich
anschauung
anschauungen
anschein
anscheinend
anschiess
anschlag
anschlags
anschliess
anschliessen
anschliessend
anschliessende
anschliessendem
anschliessenden
anschliessender
anschluss
anschläg
anschläge
anschlägen
anschlüsse
anschlüssen
anschreiben
anschrift
anschuldigung
anschuldigungen
anseh
ansehen
ansehn
ansehnliche
ansehnlichen
ansehung
anselm
ansetzen
ansgar
ansicht
ansichten
ansiedeln
ansiedl
ansiedlung
ansiedlungen
ansinnen
anson
ansonsten
anspach
anspann
anspannung
anspiel
anspielung
anspielungen
ansporn
ansprach
ansprache
ansprachen
ansprech
ansprechbar
ansprechen
ansprechend
ansprechende
ansprechenden
ansprechpartn
ansprechpartner
ansprechpartnerin
anspruch
anspruchs
anspruchsvoll
anspruchsvolle
ansprüch
ansprüche
ansprüchen
anst
anstalt
anstalten
anstand
anstatt
anstecken
ansteckend
ansteckung
ansteh
anstehende
anstehenden
ansteig
ansteigen
ansteigende
ansteigenden
anstell
anstelle
anstellen
anstellung
anstieg
anstiegs
anstiftung
anstoss
anstr
anstreng
anstrengen
anstrengend
anstrengende
anstrengenden
anstrengender
anstrengung
anstrengungen
anstrich
ansturm
anständ
anständig
anständige
anständigen
anständiger
anstöss
ansäss
ansässig
ansässige
ansässigen
ansätz
ansätze
ansätzen
ant
antalya
antar
antarctic
antarkt
antarktis
antarktischen
ante
anteil
anteile
anteilen
anteilig
anteilnahme
anteils
anteilseigner
anteilsscheine
antenne
antennen
anth
antheil
anthologie
antholz
anthony
anthrop
anthropologie
anti
antibiotika
antibiotikum
antidepressiva
antidumping
antik
antike
antiken
antiker
antikörper
antipathi
antiquiert
antiquitäten
antisemit
antisemiten
antisemitisch
antisemitische
antisemitischer
antisemitismus
antje
antlitz
antnio
antoine
antoinette
anton
antoni
antonia
antonio
antonis
antonius
antony
antrag
antrags
antragsgegn
antragsgegnerin
antragstell
antragsteller
antragstellerin
antragstellung
antrat
antret
antreten
antrieb
antriebe
antrieben
antritt
antrittsbesuch
antrittsrede
anträg
anträge
anträgen
antun
antw
antwerp
antwerpen
antwor
antwort
antworte
antworten
antwortet
antwortete
antworteten
anus
anvertrau
anvertrauen
anvertraut
anvertrauten
anvisierte
anvisierten
anw
anwachsen
anwalt
anwalts
anwaltschaften
anwaltskanzlei
anwaltverein
anwaltvereins
anwar
anwart
anweis
anweisung
anweisungen
anwend
anwendbar
anwenden
anwender
anwendern
anwendung
anwendungen
anwerbung
anwes
anwesen
anwesend
anwesende
anwesenden
anwesenheit
anwesens
anwohn
anwohner
anwohnerin
anwohnern
anwält
anwälte
anwälten
anwältin
anwärter
any
anz
anzahl
anzahlung
anzei
anzeich
anzeichen
anzeig
anzeige
anzeigen
anzeigenbörse
anzeigetafel
anzieh
anziehen
anziehend
anziehenden
anziehungs
anzu
anzubiet
anzubieten
anzuerkenn
anzuf
anzufangen
anzug
anzulegen
anzunehm
anzunehmen
anzupass
anzupassen
anzur
anzuschauen
anzuseh
anzusehen
anzusprechen
anzut
anzutreff
anzutreffen
anzuw
anzuwenden
anzüge
anzügen
anzünd
ao
aogo
aok
aol
ap
apa
apache
apart
apartheid
apartment
apartments
apath
apel
apfel
api
apokalypse
apokalypt
apokalyptischen
apoll
apollo
apost
apostel
apostolische
apostolischen
apoth
apothek
apotheke
apotheken
apotheker
app
appar
apparat
apparate
appart
appartement
appartements
appel
appell
appelle
appellieren
appelliert
appellierte
appetit
appl
applaudi
applaus
apple
apples
applikation
applikationen
approbation
apps
apr
april
aprilia
apropos
apsis
aqu
aquar
aquarelle
aquarium
ar
ara
arab
araber
arabern
arabien
arabisch
arabische
arabischen
arabischer
arafat
arango
arb
arbei
arbeit
arbeite
arbeiten
arbeitende
arbeitenden
arbeiter
arbeiterinnen
arbeiterklasse
arbeitern
arbeiterpartei
arbeiterschaft
arbeitet
arbeitete
arbeiteten
arbeitgeb
arbeitgeber
arbeitgeberin
arbeitgebern
arbeitgebers
arbeitnehm
arbeitnehmer
arbeitnehmern
arbeitnehmers
arbeits
arbeitsagentur
arbeitsalltag
arbeitsamt
arbeitseinsatz
arbeitsentgelt
arbeitsgemeinschaft
arbeitsgericht
arbeitsgrupp
arbeitsgruppe
arbeitsgruppen
arbeitskampf
arbeitskosten
arbeitskraft
arbeitskreis
arbeitskreises
arbeitskräft
arbeitskräfte
arbeitskräften
arbeitslager
arbeitsleben
arbeitsleist
arbeitslos
arbeitslose
arbeitslosen
arbeitslosigkeit
arbeitsmarkt
arbeitsmarktes
arbeitsminister
arbeitsniederlegungen
arbeitsort
arbeitsp
arbeitspl
arbeitsplatz
arbeitsplatzes
arbeitsplätz
arbeitsplätze
arbeitsplätzen
arbeitsrecht
arbeitsschutz
arbeitsstelle
arbeitsstunden
arbeitstag
arbeitstage
arbeitsteilung
arbeitstitel
arbeitsunfall
arbeitsvertrag
arbeitsweis
arbeitsweise
arbeitswelt
arbeitszeit
arbeitszeiten
arbeitszimmer
arbgg
arc
arcandor
arch
archaisch
archaischen
arche
archie
archipel
archit
architekt
architekten
architektin
architektonisch
architektonische
architektonischen
architektur
archiv
archivar
archive
archiven
archivs
archä
archäologe
archäologen
archäologi
archäologie
archäologisch
archäologische
archäologischen
ard
are
area
areal
areale
areals
arena
arendt
arenen
arg
arge
argentin
argentini
argentinien
argentiniens
argentinier
argentinische
argentinischen
argentinischer
argum
argument
argumentation
argumente
argumenten
argumentieren
argumentiert
argumentierte
argumentierten
argwohn
argwöhn
ari
ariana
ariane
arie
ariel
arien
arist
aristide
aristo
aristokratie
aristoteles
arizona
arjen
ark
arkaden
arkansas
arktis
arktischen
arm
armada
armand
armando
armani
armaturen
armaturenbrett
armb
armband
armbanduhr
armbrust
arme
armee
armeekorps
armeen
armen
armenien
armenier
armeniern
armenische
armenischen
armer
armes
armin
arminia
arms
armsel
armselige
armseligen
armstron
armstrong
armstrongs
armut
armutszeugnis
army
arn
arnaud
arnautovic
arnd
arndt
arne
arnesen
arnheim
arnim
arno
arnold
arnsberg
arnulf
aroma
aromen
aron
around
arp
arrang
arrangement
arrangements
arrangeur
arrangieren
arrangiert
arrangierte
array
arrest
arrogant
arroganz
arrondiss
arrondissement
ars
arsch
arschl
arschloch
arsen
arsenal
arsenals
arsene
arslan
arsne
art
arte
artefakte
arten
artenschutz
artenvielfalt
artepitheton
artgenossen
artgerechte
arthrose
arthur
arti
artig
artik
artikel
artikeln
artikels
artilleri
artillerie
artist
artisten
artland
arts
artur
arturo
arw
arz
arznei
arzneien
arzneimittel
arzneimitteln
arzt
arztbesuch
arztes
arztpraxen
arztpraxis
as
asamoah
asbest
asc
asch
aschaffenburg
asche
aschermittwoch
aschersleben
ascherslebener
aschewolke
asd
aserbaidsch
aserbaidschan
ash
ashley
ashton
asi
asia
asian
asiat
asiaten
asiatische
asiatischen
asiatischer
asien
asiens
askania
asklepios
asl
asmussen
asp
aspekt
aspekte
aspekten
asphalt
asphaltierte
ass
assad
assads
assange
assauer
asse
assen
assessor
asset
assistant
assistent
assistenten
assistentin
assistenz
assistenzarzt
assists
assoc
association
assozi
assoziation
assoziationen
assoziiert
ast
asta
astana
asteroid
asteroiden
asthma
aston
astra
astrid
astron
astronaut
astronauten
astronom
astronomen
astronomie
astronomische
astronomischen
astrophysiker
asu
asus
asv
asy
asyl
asylan
asylantrag
asylanträge
asylbewerb
asylbewerber
asylbewerbern
asylg
asylpolitik
asylrecht
asylstreit
asylsuchende
asylsuchenden
asylverfahren
asylvfg
at
atalanta
atari
atatürk
ateli
atelier
ateliers
atem
atemalkoholtest
atemb
atemberaub
atemberaubend
atemberaubende
atemberaubenden
atemlos
atemluft
atemnot
atemschutz
atemwege
atemzug
ath
atheisten
athem
athen
athener
athens
athl
athlet
athleten
athletic
athletin
athletinnen
atl
atlan
atlant
atlanta
atlantic
atlantik
atlantikküste
atlantiks
atlantis
atlantischen
atlas
atletico
atltico
atmen
atmet
atmete
atmosphär
atmosphäre
atmosphärisch
atmosphärische
atmosphärischen
atmung
atom
atomabkommen
atomanlagen
atomare
atomaren
atomausstieg
atombombe
atombomben
atome
atomenergie
atomkraft
atomkraftwerk
atomkraftwerke
atomkraftwerks
atommeiler
atommüll
atomprogramm
atomprogramms
atomstreit
atomstrom
atomtest
atomwaffen
atp
atrium
att
atta
attac
attack
attacke
attacken
attacki
attackieren
attackiert
attackierte
attackierten
attent
attentat
attentate
attentaten
attentats
attentät
attentäter
attentäters
attest
attestiert
attestierte
attila
attra
attraktion
attraktionen
attraktiv
attraktive
attraktiven
attraktiver
attraktives
attraktivität
attraktivsten
attribut
attribute
atv
au
aub
aubameyang
auch
auckland
aud
audersch
audi
audienz
audio
audiosystem
audiovis
auditorium
audrey
aue
auer
auerbach
auf
aufarbeitung
aufatmen
aufbau
aufbauen
aufbaus
aufbauspieler
aufbauten
aufbereit
aufbereitet
aufbereitung
aufbess
aufbesser
aufbew
aufbewahr
aufbewahren
aufbewahrt
aufbewahrung
aufbieten
aufblas
aufbläh
aufblüh
aufbrechen
aufbring
aufbringen
aufbruch
aufbäumen
aufdeckung
aufdruck
aufeinand
aufeinander
aufeinanderfolgenden
aufeinandertreffen
aufent
aufenthalt
aufenthalte
aufenthalten
aufenthaltes
aufenthalts
aufenthaltsort
aufenthg
auferlegt
aufersteh
auferstehung
auff
auffahrt
auffahrunfall
auffall
auffallen
auffallend
auffallende
auffangen
auffass
auffassung
auffassungen
auffinden
aufforder
aufforderung
aufforderungen
auffäll
auffällig
auffällige
auffälligen
auffälliger
auffälligkeiten
auffälligsten
aufführ
aufführen
aufführung
aufführungen
aufg
aufgab
aufgabe
aufgaben
aufgabengebiet
aufgang
aufgearbeitet
aufgeb
aufgebaut
aufgebaute
aufgebauten
aufgeben
aufgebot
aufgeboten
aufgebracht
aufgebrachte
aufgebrachten
aufgebraucht
aufgebrochen
aufgedeckt
aufgedreht
aufgefahren
aufgefall
aufgefallen
aufgefangen
aufgefasst
aufgefordert
aufgefund
aufgefunden
aufgefundenen
aufgeführt
aufgeführten
aufgefüllt
aufgegangen
aufgegeb
aufgegeben
aufgegriff
aufgegriffen
aufgehalt
aufgehalten
aufgeheizten
aufgehen
aufgehenden
aufgehob
aufgehoben
aufgeholt
aufgehängt
aufgehört
aufgekauft
aufgeklärt
aufgeklärte
aufgeklärten
aufgel
aufgeladen
aufgeladenen
aufgelegt
aufgelegte
aufgelegten
aufgelistet
aufgelöst
aufgelösten
aufgemacht
aufgenomm
aufgenommen
aufgenommene
aufgenommenen
aufgepasst
aufgeregt
aufgeregte
aufgeregten
aufgerichtet
aufgerissen
aufgerissenen
aufgerollt
aufgeruf
aufgerufen
aufgeräumt
aufgerüstet
aufgesch
aufgeschlagen
aufgeschlossen
aufgeschoben
aufgeschrieben
aufgesetzt
aufgespürt
aufgestanden
aufgestellt
aufgestellte
aufgestellten
aufgestiegen
aufgestockt
aufgesucht
aufgetaucht
aufgeteilt
aufgetragen
aufgetret
aufgetreten
aufgew
aufgewachs
aufgewachsen
aufgewachsene
aufgewacht
aufgeweckt
aufgewendet
aufgewertet
aufgeworf
aufgewühlt
aufgezeichnet
aufgezeigt
aufgezogen
aufgrund
aufhalt
aufhalten
aufheb
aufheben
aufhebung
aufholen
aufholjagd
aufhorchen
aufhör
aufhören
aufhört
aufkleber
aufklär
aufklären
aufklärer
aufklärung
aufklärungs
aufkomm
aufkommen
aufkommende
aufkommenden
aufkündigung
aufl
aufladen
auflag
auflage
auflagen
auflaufen
aufleben
auflistung
auflös
auflösen
auflösung
aufm
aufmachen
aufmachung
aufmarsch
aufmerksam
aufmerksame
aufmerksamen
aufmerksamer
aufmerksamkeit
aufmunt
aufmunter
aufmunternd
aufnahm
aufnahme
aufnahmen
aufnehm
aufnehmen
aufnimmt
aufpass
aufpassen
aufprall
aufpralls
aufpreis
aufrecht
aufrechte
aufrechten
aufrechterhalten
aufreg
aufregen
aufregend
aufregende
aufregenden
aufregender
aufreger
aufregung
aufreib
aufricht
aufrichtig
aufrichtige
aufrichtigkeit
aufriss
aufruf
aufrufe
aufrufen
aufruhr
aufräumarbeiten
aufräumen
aufrühr
aufrüstung
aufs
aufsatz
aufschieb
aufschlag
aufschlagen
aufschluss
aufschläge
aufschlüsse
aufschrei
aufschrift
aufschub
aufschw
aufschwing
aufschwung
aufschwungs
aufseh
aufsehen
aufsehenerregenden
aufseher
aufseiten
aufsetzen
aufsicht
aufsichts
aufsichtsrat
aufsichtsrates
aufsichtsrats
aufsichtsräte
aufsichtsräten
aufspaltung
aufspüren
aufstand
aufstandes
aufstands
aufstehen
aufsteig
aufsteigen
aufsteigende
aufsteigenden
aufsteiger
aufsteigers
aufstell
aufstellen
aufstellung
aufstieg
aufstiegs
aufstiegskampf
aufstiegsrunde
aufstock
aufstocken
aufstockung
aufstrebende
aufstrebenden
aufstände
aufständische
aufständischen
aufsuchen
aufsätze
auft
aufta
auftakt
auftaktmatch
auftaktsieg
auftaktspiel
auftauchen
auftaucht
aufteil
aufteilung
auftrag
auftrage
auftraggeb
auftraggeber
auftraggebern
auftrags
auftragsbücher
auftragslage
auftrat
auftreib
auftret
auftreten
auftretende
auftretenden
auftretens
auftrieb
auftritt
auftritte
auftritten
auftritts
aufträg
aufträge
aufträgen
aufw
aufwachen
aufwachsen
aufwand
aufwands
aufwarten
aufwartung
aufweis
aufweisen
aufweist
aufwend
aufwendig
aufwendige
aufwendigen
aufwendiger
aufwendungen
aufwert
aufwertung
aufwind
aufwändig
aufwändige
aufwändigen
aufwärmen
aufwärt
aufwärts
aufwärtstr
aufwärtstrend
aufwühl
aufzeichn
aufzeichnung
aufzeichnungen
aufzeigen
aufziehen
aufzu
aufzubau
aufzubauen
aufzucht
aufzug
aufzugeb
aufzugeben
aufzuhalten
aufzuheb
aufzuklären
aufzulösen
aufzunehm
aufzunehmen
aufzustell
aufzustellen
aufzählung
aufzüge
aug
auge
augen
augenarzt
augenblick
augenblicke
augenblicken
augenblicklich
augenblicklichen
augenblicks
augenbrauen
augenhöhe
augenmass
augenmerk
augenschein
augenscheinlich
augenweid
augenzeuge
augenzeugen
augenzwinkern
augenzwinkernd
auges
augsburg
augsburger
augsburgs
augstein
august
augusta
auguste
augustin
augustinus
augusto
augustus
auktion
auktionen
auktionshaus
aula
aung
aur
aura
aurich
aurora
aus
ausarbeit
ausarbeitung
ausb
ausbau
ausbauen
ausbaus
ausbaustufe
ausbeut
ausbeute
ausbeutung
ausbezahlt
ausbild
ausbilden
ausbilder
ausbildung
ausbildungen
ausbildungs
ausbleiben
ausblick
ausblicke
ausbrech
ausbrechen
ausbreit
ausbreiten
ausbreitung
ausbruch
ausbruchs
ausbrüche
ausbrüchen
auschwitz
ausdau
ausdauer
ausdauernde
ausdehn
ausdehnen
ausdehnung
ausdruck
ausdrucks
ausdrucksweise
ausdrück
ausdrücke
ausdrücken
ausdrücklich
ausdrückliche
ausdrücklichen
auseinand
auseinander
auseinanderfall
auseinandergesetzt
auseinandersetz
auseinandersetzen
auseinandersetzung
auseinandersetzungen
auserwählten
ausfahrt
ausfahrten
ausfall
ausfallen
ausfalls
ausfindig
ausflug
ausflugsziel
ausflüg
ausflüge
ausflügen
ausflügler
ausfuhr
ausfuhren
ausfälle
ausfällen
ausfällt
ausführ
ausführen
ausführlich
ausführliche
ausführlichen
ausführlicher
ausführliches
ausführung
ausführungen
ausfüllen
ausg
ausgab
ausgabe
ausgaben
ausgang
ausgangs
ausgangslage
ausgangspunkt
ausgangssperre
ausgearbeitet
ausgeb
ausgebaut
ausgebaute
ausgebauten
ausgeben
ausgebessert
ausgebeutet
ausgebildet
ausgebildete
ausgebildeten
ausgebildeter
ausgeblendet
ausgebrannten
ausgebreitet
ausgebreiteten
ausgebremst
ausgebrochen
ausgebucht
ausged
ausgedacht
ausgedehn
ausgedehnt
ausgedehnte
ausgedehnten
ausgedrückt
ausgefall
ausgefallen
ausgefallene
ausgefallenen
ausgeflippt
ausgeführt
ausgeführte
ausgeführten
ausgefüllt
ausgeg
ausgegang
ausgegangen
ausgegeb
ausgegeben
ausgegebenen
ausgeglichen
ausgeglichene
ausgeglichenen
ausgeglichener
ausgeglichenes
ausgegliedert
ausgegraben
ausgegrenzt
ausgeh
ausgehandelt
ausgehandelte
ausgehandelten
ausgehen
ausgehend
ausgehende
ausgehenden
ausgehoben
ausgeht
ausgehungert
ausgehändigt
ausgeklügelten
ausgel
ausgelagert
ausgelass
ausgelassen
ausgelassene
ausgelassenen
ausgelastet
ausgelaufen
ausgelaugt
ausgelegt
ausgelegte
ausgelegten
ausgeliefert
ausgelieferten
ausgelieh
ausgeliehen
ausgeliehene
ausgelöscht
ausgelöst
ausgelöste
ausgelösten
ausgemacht
ausgemustert
ausgenomm
ausgenommen
ausgenutzt
ausgeprä
ausgeprägt
ausgeprägte
ausgeprägten
ausgeprägter
ausgeprägtes
ausgeraubt
ausgerechnet
ausgereift
ausgerichtet
ausgerichtete
ausgerichteten
ausgerottet
ausgerufen
ausgerufenen
ausgeruht
ausgeräumt
ausgerüstet
ausgerüstete
ausgerüsteten
ausgesagt
ausgesch
ausgeschaltet
ausgeschied
ausgeschieden
ausgeschiedenen
ausgeschlagen
ausgeschloss
ausgeschlossen
ausgeschrieb
ausgeschrieben
ausgeschriebenen
ausgeschöpft
ausgeschüttet
ausgesehen
ausgesetzt
ausgesetzten
ausgespielt
ausgesproch
ausgesprochen
ausgesprochene
ausgesprochenen
ausgespäht
ausgestalt
ausgestaltet
ausgestaltung
ausgestat
ausgestattet
ausgestattete
ausgestatteten
ausgestatteter
ausgestattetes
ausgestellt
ausgestellte
ausgestellten
ausgestiegen
ausgestorb
ausgestorben
ausgestorbene
ausgestorbenen
ausgestossen
ausgestrahlt
ausgestrahlten
ausgestreckt
ausgestreckten
ausgesucht
ausgesuchte
ausgesuchten
ausget
ausgetauscht
ausgetrag
ausgetragen
ausgetragene
ausgetragenen
ausgetreten
ausgew
ausgewachsene
ausgewachsenen
ausgewandert
ausgewechselt
ausgeweitet
ausgewertet
ausgewies
ausgewiesen
ausgewiesene
ausgewiesenen
ausgewiesener
ausgewog
ausgewogen
ausgewogene
ausgewogenen
ausgewählt
ausgewählte
ausgewählten
ausgewählter
ausgezahlt
ausgezeichnet
ausgezeichnete
ausgezogen
ausgezählt
ausgeübt
ausgiebig
ausgiebige
ausgiebigen
ausgleich
ausgleichen
ausgleichs
ausgleichszahl
ausgleit
ausgliederung
ausgra
ausgrab
ausgrabung
ausgrabungen
ausgrenz
ausgrenzung
ausguck
aushalten
aushilfe
aushängeschild
ausklang
ausklingen
auskomm
auskommen
auskunft
auskuri
auskünft
auskünfte
auslag
auslage
auslagen
auslagerung
ausland
auslands
auslandsreise
auslandsreisen
auslastung
auslauf
auslaufen
auslaufende
auslaufenden
ausleben
ausleg
auslegung
ausleihe
ausleihen
ausliefer
ausliefern
auslieferung
auslieferungen
auslosung
ausländ
ausländer
ausländerfeindlichen
ausländern
ausländische
ausländischen
ausländischer
ausländisches
ausläufer
ausläufern
auslös
auslösch
auslösen
auslöser
ausmach
ausmachen
ausmacht
ausmass
ausmasse
ausmasses
ausnahm
ausnahme
ausnahmefällen
ausnahmen
ausnahmslos
ausnahmsweis
ausnahmsweise
ausnutzen
ausnutzung
ausprobieren
ausprobiert
ausprä
ausprägung
ausprägungen
auspuff
ausradi
ausraster
ausrede
ausreden
ausreich
ausreichen
ausreichend
ausreichende
ausreichendem
ausreichenden
ausreichender
ausreichendes
ausreis
ausreise
ausreisen
ausreisser
ausricht
ausrichten
ausrichter
ausrichtung
ausrott
ausrottung
ausruf
ausrufezeichen
ausrufung
ausruhen
ausrutscher
ausrücken
ausrüst
ausrüster
ausrüstung
auss
aussaat
aussag
aussage
aussagekraft
aussagekräftige
aussagen
aussah
aussch
ausschalt
ausschalten
ausschau
ausscheid
ausscheiden
ausscheidung
ausschlag
ausschlaggebend
ausschliess
ausschliessen
ausschliesslich
ausschliessliche
ausschluss
ausschnitt
ausschnitte
ausschreib
ausschreibung
ausschreibungen
ausschreitungen
ausschuss
ausschusses
ausschüss
ausschüsse
ausschüssen
ausschütt
ausschüttung
ausschüttungen
ausseh
aussehen
aussehende
aussehenden
aussehens
aussen
aussenanlage
aussenanlagen
aussenbahn
aussenbereich
aussendienst
aussenfassade
aussengelände
aussengrenzen
aussenhandel
aussenminist
aussenminister
aussenministerin
aussenministerium
aussenministers
aussenpolit
aussenpolitik
aussenpolitisch
aussenposten
aussenseit
aussenseite
aussenseiter
aussenspiegel
aussenstehende
aussenstelle
aussenstellen
aussenwand
aussenwelt
aussenwände
ausser
ausserd
ausserdem
aussergerichtlich
aussergerichtlichen
aussergewöhn
ausserhalb
ausserirdische
ausserirdischen
ausserord
ausserordent
ausserordentlicher
aussetz
aussetzen
aussetzer
aussetzung
aussicht
aussichten
aussichts
aussichtslos
aussichtslosen
aussichtspunkt
aussichtsreich
aussichtsturm
aussieht
aussortiert
ausspielen
ausspioniert
aussprach
aussprache
aussprechen
ausspruch
ausstand
ausstatt
ausstatten
ausstattung
ausstattungen
ausstehende
ausstehenden
aussteigen
ausstell
ausstellen
aussteller
ausstellern
ausstellung
ausstellungen
ausstellungs
aussterb
aussterben
ausstieg
ausstiegs
ausstoss
ausstrahl
ausstrahlung
aussuchen
aussöhnung
aust
austausch
austauschen
austern
austin
austoben
austrag
austragen
austragung
austragungsort
austral
australi
australia
australian
australien
australiens
australier
australierin
australische
australischen
australischer
austreten
austria
austrian
austritt
austritts
ausufernde
ausufernden
ausverkauf
ausverkauft
ausverkaufte
ausverkauften
ausw
auswahl
auswanderer
auswanderung
auswechslung
ausweg
ausweichen
ausweis
ausweise
ausweisen
ausweisung
ausweit
ausweiten
ausweitung
auswendig
auswert
auswerten
auswertung
auswertungen
auswirk
auswirken
auswirkung
auswirkungen
auswähl
auswählen
auswär
auswärt
auswärtige
auswärtigen
auswärts
auswärtssieg
auswärtsspiel
auswärtsspiele
auswärtsspielen
auswüchse
auszahl
auszahlen
auszahlung
auszahlungen
auszeichn
auszeichnung
auszeichnungen
auszeit
ausziehen
auszu
auszubau
auszubauen
auszubild
auszubildende
auszubildenden
auszudrücken
auszuführen
auszug
auszugeh
auszugehen
auszugleich
auszuleg
auszur
auszuschliess
auszuschliessen
auszusetzen
auszusprechen
auszutauschen
auszuüb
auszählung
auszüge
auszügen
ausüb
ausüben
ausübung
aut
auth
authent
authentisch
authentische
authentischen
authentizität
author
authority
autismus
auto
autob
autobahn
autobahnbrücke
autobahnen
autobahnkreuz
autobauer
autobauern
autobauers
autobesitzer
autobi
autobiografie
autobiografischen
autobiographie
autobombe
autobranche
autofahr
autofahren
autofahrer
autofahrerin
autofahrern
autofahrt
autogramm
autogramme
autohaus
autohauses
autohersteller
autohändler
autoindustrie
autokauf
autokonzern
autokonzerne
autokraten
autokäufer
autom
automarkt
automat
automaten
automatik
automatisch
automatische
automatischen
automatischer
automatisiert
automatisierte
automatisierten
automatisierung
automesse
autominuten
automobil
automobilclub
automobile
automobilen
automotive
auton
autonom
autonome
autonomen
autonomes
autonomi
autonomie
autopilot
autopsie
autor
autoreifen
autoren
autorennen
autorin
autorinnen
autoritär
autoritäre
autoritären
autorität
autoritäten
autors
autos
autosalon
autoschlüssel
autounfall
autoverkehr
autovermiet
autozulieferer
aux
av
avanc
avancen
avanciert
avancierte
avant
avantgarde
aven
avenu
avenue
aviation
avignon
aviv
aw
award
awards
awo
awr
ax
axel
axt
ay
ayhan
ayrton
az
aziz
azr
azubi
azubis
b
ba
baader
bab
baba
babbel
babel
babelsberg
babelsberger
babenhausen
baby
babylon
babypause
babys
babysitter
bac
bach
bachelor
bachelorette
baches
bachmann
bachs
back
backen
background
backhaus
backof
backofen
backstein
backstube
backt
backup
backwaren
bacon
bad
bade
badegäste
badehose
bademeister
baden
badener
badeort
bader
bades
badesaison
badesee
badewann
badewanne
badezimm
badezimmer
badischen
badminton
badstuber
baerbock
bafin
bafög
bag
bagd
bagdad
bagg
bagger
bah
bahamas
bahia
bahn
bahnbrech
bahnbrechende
bahnchef
bahndamm
bahnen
bahnfahrer
bahnhof
bahnhofes
bahnhofs
bahnhofstrasse
bahnhöfe
bahnhöfen
bahnkunden
bahnlinie
bahnreisende
bahnsprecher
bahnstation
bahnsteig
bahnsteige
bahnsteigen
bahnstrasse
bahnstreck
bahnstrecke
bahnstrecken
bahnt
bahnte
bahntrasse
bahnverkehr
bahnübergang
bahr
bahrain
baier
baikonur
bailey
bak
baker
bakr
bakt
bakteri
bakterielle
bakterien
bakterium
baku
bal
balanc
balance
bald
baldige
baldigen
baldiges
balduin
baldwin
bale
balearen
bali
baling
balk
balkan
balkanroute
balken
balkon
balkone
balkonen
ball
ballack
ballade
balladen
ballast
ballbesitz
ballen
ballenstedt
ballett
ballhaus
ballmer
ballon
ballons
ballsaal
ballte
ballungs
ballungsräumen
ballverlust
ballverluste
balotelli
balsam
balt
balthasar
baltic
baltikum
baltimore
baltischen
bam
bamberg
bamberger
bambi
bambus
bamf
ban
banal
banale
banalen
banalität
banan
banane
bananen
banco
band
bandagen
bandbreit
bandbreite
bande
banden
bandes
bandidos
banditen
bandleader
bandmitglieder
bands
bang
bange
bangen
bangert
bangkok
bangladesch
bangt
bank
bankchef
bankdaten
banken
bankenaufsicht
bankenkrise
bankensektor
bankensystem
banker
bankett
bankfiliale
bankgeschäfte
bankhaus
bankier
bankiers
banking
bankkaufmann
bankkonto
bankkunden
banknoten
bankrott
bankräuber
banks
bann
banner
bannon
bap
bapt
baptist
bar
bara
barack
baracke
baracken
barak
barb
barbar
barbara
barbarei
barbaren
barbarischen
barbarossa
barbie
barbier
barca
barcel
barcelona
barcelonas
barclays
bare
barenboim
bares
barfuss
barg
bargeld
bargen
bari
bariton
barkeeper
barker
barley
barm
barmen
barmer
barmherz
barmherzigkeit
barn
barnes
barnholt
barnier
baro
barock
barocke
barocken
barocker
barometer
baron
barone
baronin
barons
barr
barrel
barren
barri
barrichello
barrier
barriere
barrierefrei
barrierefreie
barrierefreien
barrieren
barrikaden
barrios
barroso
barry
bars
bart
bartels
barth
barthel
bartholomäus
bartoli
bartsch
bas
basar
baschar
base
baseball
based
basel
basen
basf
basi
basic
basier
basieren
basierend
basierende
basierenden
basiert
basierte
basierten
basil
basilika
basilikum
basis
basismodell
basispunkte
basisversion
basiszinssatz
baskenland
basket
basketball
basketballer
baskets
baskische
baskischen
basler
basra
bass
bassist
bassisten
bast
bastard
basteln
bastelt
bastian
bastille
bastion
bastl
bastler
bat
bataillon
bataillone
bataillons
baten
bath
batman
batt
batteri
batterie
batterien
battista
battle
batzen
bau
bauabschnitt
bauabschnitten
bauamt
bauamtsleiter
bauantrag
bauarbeit
bauarbeiten
bauarbeiter
bauart
bauaufsicht
bauausschuss
bauausschusses
baubeginn
baubranche
bauch
bauchgefühl
bauchschmerzen
baudenkmal
baudenkmale
baudenkmäler
baudezernent
baue
bauen
bauer
bauermann
bauern
bauernhaus
bauernhof
bauernhöfe
bauernmarkt
bauernverband
bauf
baufirma
baufirmen
bauform
baugb
baugebiet
baugenehm
baugenehmigung
baugewerbe
baugrube
baugrund
baugrundstück
baugrundstücke
bauhaus
bauherr
bauherren
bauherrn
bauhof
bauingenieur
baujahr
baukonzern
baukost
baukosten
baukunst
baukörper
bauland
bauleiter
bauleitung
baulich
bauliche
baulichen
baum
baumann
baumarkt
baumarten
baumaschinen
baumassnahme
baumassnahmen
baumaterial
baumaterialien
baumberg
baumberger
baumbestand
baume
baumeist
baumeister
baumeln
baumes
baumgart
baumgarten
baumgartner
baumstamm
baumstämme
baumwoll
baumwolle
baunatal
baunvo
bauordnung
bauphase
bauplatz
baupläne
bauprojekt
bauprojekte
baur
baurecht
baureferat
baureih
baureihe
baureihen
baus
bausch
bauschutt
bause
baustart
baustein
bausteine
baustell
baustelle
baustellen
baustil
baustoffe
baustopp
bausubstanz
baut
baute
bauteil
bauteile
bauteilen
bauten
bauträger
bautzen
bautätigkeit
bauunternehmen
bauunternehmer
bauverein
bauvorhab
bauvorhaben
bauweis
bauweise
bauwerk
bauwerke
bauwerken
bauwerks
bauwesen
bauwirtschaft
bauzaun
bauzeit
bav
bavaria
bay
bayarena
bayer
bayerische
bayerischen
bayerischer
bayern
bayernlb
bayernliga
bayerns
bayers
bayreuth
bayreuther
bayrische
bayrischen
bb
bbc
bc
bd
bdi
be
beab
beabsicht
beabsichtigt
beabsichtigte
beabsichtigten
beach
beacht
beachten
beachtenswert
beachtet
beachtete
beachteten
beachtlich
beachtliche
beachtlichen
beachtlicher
beachtung
beam
beamer
beamt
beamte
beamten
beamter
beamtin
bean
beanspr
beanspruch
beanspruchen
beansprucht
beanspruchte
beanspruchten
beanstand
beanstandet
beanstandeten
beanstandungen
beantrag
beantragen
beantragt
beantragte
beantragten
beantragung
beantwor
beantwort
beantworten
beantwortet
beantwortete
beantworteten
beantwortung
bear
bearbeit
bearbeiten
bearbeitet
bearbeitete
bearbeiteten
bearbeitung
bears
beat
beate
beatl
beatles
beatrice
beatrix
beats
beauf
beauftrag
beauftragen
beauftragt
beauftragte
beauftragten
beauftragter
beauty
beaver
bebau
bebaut
bebauten
bebauung
bebauungs
bebauungsplan
bebauungsplans
bebauungspläne
beben
bebens
bebra
bebte
bech
becher
beck
becken
beckenbauer
beckens
becker
beckers
beckert
beckham
beckmann
becks
beckstein
bed
bedacht
bedachte
bedachten
bedank
bedanke
bedanken
bedankt
bedankte
bedankten
bedarf
bedarfs
bedarfsfall
bedarfsgerecht
bedarfsorientiert
bedarft
bedau
bedauere
bedauern
bedauernswert
bedauert
bedauerte
bedaure
bedburg
bedecken
bedeckt
bedeckte
bedeckten
bedenk
bedenken
bedenkenlos
bedenklich
bedenkliche
bedenklichen
bedenkt
bedenkzeit
bedeppert
bedeut
bedeute
bedeuten
bedeutend
bedeutende
bedeutenden
bedeutender
bedeutendes
bedeutendste
bedeutendsten
bedeutet
bedeutete
bedeuteten
bedeutsam
bedeutsame
bedeutsamen
bedeutsamer
bedeutung
bedeutungen
bedeutungslos
bedeutungslosigkeit
bedi
bedien
bedienen
bedienstet
bedienstete
bediensteten
bedient
bediente
bedienten
bedienung
bedienungs
beding
bedingt
bedingte
bedingten
bedingung
bedingungen
bedingungslos
bedingungslose
bedingungslosen
bedro
bedroh
bedrohen
bedrohlich
bedrohliche
bedrohlichen
bedroht
bedrohte
bedrohten
bedrohung
bedrohungen
bedräng
bedrängnis
bedrängt
bedrängten
bedrück
bedrückt
bedur
bedurft
bedurfte
bedächtig
bedür
bedürf
bedürfe
bedürfen
bedürfnis
bedürfnisse
bedürfnissen
bedürft
bedürftige
bedürftigen
bee
beeck
beeilte
beein
beeindruck
beeindrucken
beeindruckend
beeindruckende
beeindruckenden
beeindruckender
beeindruckendes
beeindruckt
beeindruckte
beeinfl
beeinfluss
beeinflussen
beeinflusst
beeinflusste
beeinflussten
beeinflussung
beeinträch
beeinträcht
beeinträchtigen
beeinträchtigt
beeinträchtigung
beeinträchtigungen
beelitz
been
beend
beenden
beendet
beendete
beendeten
beendig
beendigung
beengten
beer
beerbaum
beerd
beerdigt
beerdigung
beerdigungen
beeren
beermann
beet
beete
beetho
beethov
beethoven
beethovens
beetle
bef
befahl
befahr
befahrbar
befahren
befahrene
befahrenen
befall
befallen
befallenen
befand
befanden
befang
befangen
befangenheit
befass
befassen
befasst
befasste
befassten
befehl
befehle
befehlen
befehligte
befehlshaber
befest
befestigen
befestigt
befestigte
befestigten
befestigung
befestigungen
befeuert
befiehlt
befin
befind
befinde
befinden
befindet
befindliche
befindlichen
befindlichkeiten
beflügelt
befohlen
befolgen
befolgt
befr
befra
befrag
befragen
befragt
befragte
befragten
befragung
befragungen
befrei
befreien
befreit
befreite
befreiten
befreiung
befreiungs
befremd
befremdet
befreundet
befreundete
befreundeten
befreundeter
befri
befried
befriedigen
befriedigend
befriedigende
befriedigt
befriedigung
befriedung
befrist
befristet
befristete
befristeten
befristung
befruchtung
befug
befugnis
befugnisse
befugt
befuhr
befund
befunde
befunden
befäh
befähigt
befähigung
befänden
beförd
beförder
befördern
befördert
beförderte
beförderung
befüllt
befür
befürcht
befürchte
befürchten
befürchtet
befürchtete
befürchteten
befürchtung
befürchtungen
befürwor
befürworten
befürworter
befürwortern
befürwortet
befürwortete
beg
begab
begaben
begabt
begabte
begabten
begabter
begabung
begang
begangen
begangene
begangenen
begann
begannen
begeb
begeben
begebenheit
begebenheiten
begeg
begegn
begegnen
begegnet
begegnete
begegneten
begegnung
begegnungen
begegnungsstätte
begehbar
begehbare
begehbaren
begehen
begehr
begehren
begehrlichkeiten
begehrt
begehrte
begehrten
begehrter
begehrtesten
begeht
begehung
begeist
begeister
begeistern
begeistert
begeisterte
begeisterten
begeisterter
begeisterung
begibt
begier
begierde
begierden
begierig
beging
begingen
beginn
beginne
beginnen
beginnend
beginnende
beginnenden
beginnt
begl
begleichen
begleit
begleiten
begleitende
begleitenden
begleiter
begleiterin
begleitern
begleitet
begleitete
begleiteten
begleitung
beglichen
beglück
beglückt
begn
begnad
begnadet
begnadeter
begnadigt
begnadigung
begnügen
begnügt
begnügte
begonn
begonnen
begonnene
begonnenen
begr
begrab
begraben
begreif
begreife
begreifen
begreiflich
begreift
begrenz
begrenzen
begrenzt
begrenzte
begrenztem
begrenzten
begrenzter
begrenzung
begriff
begriffe
begriffen
begriffes
begriffs
begriffsstutz
begräbnis
begrü
begrün
begründ
begründen
begründer
begründet
begründete
begründeten
begründung
begründungen
begrünten
begrüss
begrüsse
begrüssen
begrüsst
begrüsste
begrüssten
begrüssung
begut
begutacht
begutachten
begutachtet
begutachtung
begün
begünst
begünstigen
begünstigt
begünstigte
beh
beha
behaart
behag
behagen
behaglich
behalt
behalte
behalten
behand
behandeln
behandelnde
behandelnden
behandelt
behandelte
behandelten
behandl
behandlung
behandlungen
behandlungs
beharren
beharrlich
beharrlichkeit
beharrt
beharrte
behaup
behaupt
behaupte
behaupten
behauptet
behauptete
behaupteten
behauptung
behauptungen
behausung
beheb
beheben
behebung
behei
beheim
beheima
beheimatet
beheimatete
beheimateten
beheizbar
beheizbare
beheizt
beheizten
beheizung
beherbergen
beherbergt
beherbergte
beherr
beherrsch
beherrschen
beherrschende
beherrschenden
beherrscht
beherrschte
beherrschten
beherrschung
beherzt
beherzten
behielt
behielten
behilflich
behind
behinder
behindern
behindert
behinderte
behinderten
behinderter
behinderung
behinderungen
behob
behoben
behr
behrendt
behrens
behring
behutsam
behält
behälter
behämmert
behör
behörd
behörde
behörden
behördliche
behördlichen
behütet
bei
beibehalt
beibehalten
beibehaltung
beibringen
beichte
beid
beide
beidem
beiden
beider
beiderseitigen
beiderseits
beides
beidseitig
beieinander
beier
beiersdorf
beiersdorfer
beifahrer
beifahrerin
beifahrerseite
beifahrersitz
beifall
beifallsruf
beig
beigebracht
beigelad
beigelegt
beigeordnete
beigeordneten
beigeordneter
beigeschmack
beigesetzt
beigetrag
beigetragen
beigetreten
beigezog
beihilf
beihilfe
beihilfen
beijing
beil
beilage
beileg
beilegung
beileibe
beileid
beils
beiläufig
beim
bein
beinah
beinahe
beinamen
beine
beinen
beinhal
beinhalt
beinhalten
beinhaltet
beinhaltete
beirat
beirats
beirren
beirut
beisammen
beisammensein
beisein
beiseite
beisetzung
beisitzer
beispiel
beispiele
beispielen
beispielhaft
beispiellose
beispiellosen
beispielsweis
beispielsweise
beissen
beisst
beistand
beister
beisteu
beisteuer
beit
beitrag
beitragen
beitrags
beitragssatz
beitragszahler
beitret
beitreten
beitritt
beitritts
beiträg
beiträge
beiträgen
beiwagen
beizeiten
beizutrag
bejah
bejaht
bejubeln
bejubelt
bejubelte
bejubelten
bek
bekam
bekamen
bekannt
bekannte
bekannten
bekanntenkreis
bekannter
bekannteren
bekanntermassen
bekanntes
bekannteste
bekanntesten
bekanntester
bekanntestes
bekanntgab
bekanntgabe
bekanntgegeb
bekanntgegeben
bekanntgewordenen
bekanntheit
bekanntheits
bekanntlich
bekanntmach
bekanntmachung
bekanntschaft
bekanntschaften
bekanntwerden
bekehrung
bekenn
bekennen
bekennende
bekennender
bekenner
bekennt
bekenntnis
bekenntnisse
beklag
beklagen
beklagenswert
beklagt
beklagte
beklagten
beklei
bekleid
bekleidet
bekleidete
bekleideten
bekleidung
beklomm
bekloppt
beknackt
bekom
bekomm
bekomme
bekommen
bekommst
bekommt
bekrä
bekräf
bekräft
bekräftigt
bekräftigte
bekräftigten
bekunden
bekundet
bekundete
bekäme
bekämen
bekämpf
bekämpfen
bekämpft
bekämpfte
bekämpften
bekämpfung
bekümmert
bel
bela
beladen
beladene
beladenen
beladener
belag
belager
belagert
belagerte
belagerten
belagerung
belang
belange
belangen
belanglos
belangt
belassen
belast
belastbar
belastbare
belastbaren
belastbarkeit
belasten
belastend
belastende
belastenden
belastet
belastete
belasteten
belastung
belastungen
belauf
belaufen
beleb
beleben
belebt
belebte
belebten
belebung
beleg
belege
belegen
belegschaft
belegt
belegte
belegten
belegung
belehr
belehrbar
belehren
belehrt
belehrung
belei
beleid
beleidigen
beleidigend
beleidigt
beleidigte
beleidigung
beleidigungen
belek
beleucht
beleuchten
beleuchtet
beleuchtete
beleuchteten
beleuchtung
belfast
belg
belgi
belgien
belgiens
belgier
belgierin
belgisch
belgische
belgischen
belgischer
belgrad
belgrader
beli
belieb
belieben
beliebig
beliebige
beliebigen
beliebiger
beliebt
beliebte
beliebten
beliebter
beliebtes
beliebteste
beliebtesten
beliebtheit
belief
beliefen
beliefern
beliefert
belieferung
beliess
bell
bella
bellarabi
belle
bellen
belletrist
belletristik
bellevue
bellinghausen
belo
belogen
belohn
belohnen
belohnt
belohnte
belohnung
belohnungen
belustigt
belvedere
belzig
belziger
belächelt
beläst
belästigt
belästigung
belästigungen
beläuft
bem
bemalt
bemalte
bemalten
bemannte
bemannten
bemerk
bemerkbar
bemerken
bemerkenswert
bemerkenswerte
bemerkenswerten
bemerkenswerter
bemerkenswertes
bemerkt
bemerkte
bemerkten
bemerkung
bemerkungen
bemess
bemessen
bemmann
bemächtigte
bemän
bemängeln
bemängelt
bemängelte
bemängelten
bemü
bemüh
bemühe
bemühen
bemüht
bemühte
bemühten
bemühungen
ben
benachbar
benachbart
benachbarte
benachbarten
benachbarter
benachrichtigt
benachrichtigung
benachteil
benachteiligt
benachteiligte
benachteiligten
benachteiligung
benaglio
benahm
benannt
benannte
benannten
bender
bened
benedict
benedikt
benediktin
benef
benefiz
benefizkonzert
benefizspiel
benehmen
beneiden
beneidenswert
benenn
benennen
benennt
benennung
benfica
bengasi
benimmt
benito
benj
benjamin
benko
benn
bennett
benno
benny
benommen
benot
benrath
benrather
bensberg
bensberger
bensheim
bent
bentley
benutz
benutze
benutzen
benutzer
benutzt
benutzte
benutzten
benutzung
benz
benzema
benzin
benziner
benzinern
benzinpreise
benö
benöt
benötige
benötigen
benötigt
benötigte
benötigten
beob
beobacht
beobachte
beobachten
beobachter
beobachtern
beobachtet
beobachtete
beobachteten
beobachtung
beobachtungen
beobachtungs
beordert
bepflanzt
bepflanzung
bequ
bequem
bequeme
bequemen
bequemer
bequemlichkeit
ber
berat
beraten
beratend
berater
beraterin
beratern
beratung
beratungen
beratungs
beratungsfirma
beraub
beraubt
berausch
berauschenden
berauscht
berben
berchtesgaden
berchtesgadener
berdych
berech
berechn
berechnen
berechnet
berechnete
berechneten
berechnung
berechnungen
berecht
berechtigt
berechtigte
berechtigten
berechtigung
beredsamkeit
bereich
bereiche
bereichen
bereicher
bereichern
bereichert
bereicherung
bereiches
bereichs
bereichsleiter
bereift
bereifung
bereinigt
bereinigte
bereinigten
bereist
bereiste
bereit
bereite
bereiten
bereitet
bereitete
bereiteten
bereitgestellt
bereitgestellten
bereits
bereitschaft
bereitschafts
bereitstell
bereitstellen
bereitstellung
bereitwillig
berenberg
bereue
bereuen
bereut
berg
bergab
bergamo
bergauf
bergbau
bergbaus
bergdorf
berge
bergedorf
bergen
berger
berges
bergfried
bergführer
berggruen
bergheim
bergheimer
bergisch
bergische
bergischen
bergischer
bergland
bergleute
bergman
bergmann
bergneustadt
bergs
bergstation
bergsteiger
bergstrasse
bergung
bergungs
bergwacht
bergwerk
bergwerke
bergzum
bericht
berichte
berichten
berichterstatter
berichtet
berichtete
berichteten
berichts
berief
beriefen
beriet
berieten
berk
berkeley
berkshire
berl
berlin
berlinal
berlinale
berliner
berlinerin
berlinerinnen
berlinern
berlins
berluscon
berlusconi
berlusconis
bern
bernadette
bernanke
bernard
bernardo
bernau
bernauer
bernburg
bernburger
bernd
berndt
berner
bernfried
bernhard
bernhardt
bernie
berns
bernstein
berry
bert
berta
bertelsmann
bertha
berthold
berti
bertolt
bertram
bertrand
beru
beruf
berufe
berufen
berufes
beruflich
berufliche
beruflichen
beruflicher
berufs
berufsbild
berufsbildung
berufsgenossenschaft
berufsgruppe
berufsgruppen
berufskolleg
berufskollegs
berufsleben
berufspendler
berufsschule
berufsschulen
berufstätig
berufstätige
berufstätigen
berufsverband
berufsverbot
berufsverkehr
berufswahl
beruft
berufung
berufungs
berufungsb
beruh
beruhe
beruhen
beruhigen
beruhigend
beruhigende
beruhigenden
beruhigt
beruhigte
beruhigung
beruht
beruhte
berät
berüchtigt
berüchtigte
berüchtigten
berücksich
berücksicht
berücksichtigen
berücksichtigt
berücksichtigung
berühm
berühmt
berühmte
berühmten
berühmter
berühmtes
berühmteste
berühmtesten
berühmtheit
berühr
berühren
berührende
berührt
berührte
berührten
berührung
berührungen
berührungs
bes
besagt
besagte
besagtem
besagten
besagter
besann
besass
besassen
besatz
besatzer
besatzung
besatzungen
besatzungs
besatzungszone
besch
beschaff
beschaffen
beschaffenheit
beschafft
beschaffte
beschaffung
beschauliche
beschaulichen
bescheid
bescheide
bescheiden
bescheidene
bescheidenen
bescheidener
bescheidenes
bescheidenheit
beschein
bescheinigen
bescheinigt
bescheinigte
bescheinigung
beschenkt
bescheren
beschert
bescherte
bescherten
bescherung
bescheuert
beschieden
beschilderung
beschimpfen
beschimpft
beschimpfte
beschimpfungen
beschiss
beschl
beschlag
beschlagnahm
beschlagnahme
beschlagnahmt
beschlagnahmte
beschlagnahmten
beschleun
beschleunigen
beschleunigt
beschleunigte
beschleunigten
beschleunigung
beschliess
beschliessen
beschliesst
beschloss
beschlossen
beschlossene
beschlossenen
beschluss
beschlusses
beschlüss
beschlüsse
beschlüssen
beschmiert
beschneid
beschneidung
beschnitten
beschossen
beschreib
beschreiben
beschreibt
beschreibung
beschreibungen
beschrieb
beschrieben
beschriebene
beschriebenen
beschruppt
beschrän
beschränk
beschränken
beschränkt
beschränkte
beschränkten
beschränkter
beschränkung
beschränkungen
beschul
beschuld
beschuldigen
beschuldigt
beschuldigte
beschuldigten
beschuldigungen
beschuss
beschw
beschwer
beschwerd
beschwerde
beschwerden
beschweren
beschwerlich
beschwerlichen
beschwert
beschwerte
beschwerten
beschwicht
beschwingt
beschwor
beschworen
beschworene
beschwören
beschwört
beschä
beschäd
beschädigen
beschädigt
beschädigte
beschädigten
beschädigung
beschädigungen
beschäf
beschäft
beschäftige
beschäftigen
beschäftigt
beschäftigte
beschäftigten
beschäftigung
beschäftigungen
beschäftigungslos
beschäm
beschämt
beschütz
beschützen
beschützer
beschützt
beseelt
besei
beseit
beseitigen
beseitigt
beseitigung
besen
besessen
besetz
besetzen
besetzer
besetzt
besetzte
besetzten
besetzter
besetztes
besetzung
besetzungen
besi
besicht
besichtigen
besichtigt
besichtigung
besichtigungen
besichtigungs
besiedelt
besiedelte
besiedelten
besiedelung
besiedl
besiedlung
besieg
besiegelt
besiegelte
besiegelten
besiegen
besiegt
besiegte
besiegten
besiktas
besinnen
besinnliche
besinnt
besinnung
besitz
besitze
besitzen
besitzer
besitzerin
besitzern
besitzers
besitzes
besitzt
besitztümer
besitzungen
besold
besoldung
besond
besondere
besonderem
besonderen
besonderer
besonderes
besonderheit
besonderheiten
besondern
besonders
besonn
besonnen
besonnenheit
besorg
besorgen
besorgnis
besorgniserreg
besorgt
besorgte
besorgten
besorgter
besp
bespielt
besprech
besprechen
besprechung
besprechungen
bespricht
besproch
besprochen
bess
besser
bessere
besserem
besseren
besserer
besseres
bessern
besserung
best
bestand
bestanden
bestandenen
bestands
bestandskrä
bestandteil
bestandteile
bestandteilen
bestatter
bestattet
bestattung
bestattungen
bestaunen
bestaunt
bestbesetzung
beste
bestech
bestechen
bestechlichkeit
bestechung
besteck
besteh
bestehe
bestehen
bestehend
bestehende
bestehenden
bestehender
bestehendes
bestehens
besteht
besteigen
besteigung
bestell
bestellen
bestellt
bestellte
bestellten
bestellung
bestellungen
bestem
besten
bestenfalls
bestenliste
bestens
bester
bestes
besteu
besteuer
besteuert
besteuerung
bestform
besti
besticht
bestie
bestieg
bestiegen
bestimm
bestimmen
bestimmende
bestimmenden
bestimmt
bestimmte
bestimmten
bestimmter
bestimmtes
bestimmtheit
bestimmung
bestimmungen
bestleistung
bestmarke
bestmög
bestmöglich
bestmögliche
bestmöglichen
bestnote
bestochen
bestohlen
bestra
bestraf
bestrafen
bestraft
bestrafte
bestrafung
bestrahlung
bestreb
bestreben
bestrebungen
bestreit
bestreiten
bestreitet
bestritt
bestritten
bestsell
bestseller
bestzeit
bestzeiten
bestä
beständ
bestände
beständen
beständig
beständige
beständigen
beständigkeit
bestärkt
bestät
bestätige
bestätigen
bestätigt
bestätigte
bestätigten
bestätigung
bestückt
bestückte
bestünd
bestünde
bestünden
bestürz
bestürzt
bestürzung
besuch
besuche
besuchen
besucher
besucherin
besucherinnen
besuchern
besucherzahl
besucherzahlen
besuches
besuchs
besucht
besuchte
besuchten
bet
beta
betagte
betagten
bete
beteil
beteiligen
beteiligt
beteiligte
beteiligten
beteiligung
beteiligungen
beteiligungs
beten
betet
betete
beteuert
beteuerte
beteuerungen
beth
bethlehem
betis
betitelt
beton
betonen
betont
betonte
betonten
betonung
betr
betra
betrach
betracht
betrachte
betrachten
betrachter
betrachters
betrachtet
betrachtete
betrachteten
betrachtung
betrachtungen
betraf
betrafen
betrag
betrage
betragen
betrat
betraten
betraut
betravg
betreff
betreffe
betreffen
betreffend
betreffende
betreffenden
betreib
betreibe
betreiben
betreiber
betreiberin
betreibern
betreibers
betreibt
betret
betreten
betreu
betreuen
betreuer
betreuerin
betreuern
betreut
betreute
betreuten
betreuung
betreuungs
betreuungsgeld
betrieb
betriebe
betrieben
betriebene
betriebenen
betriebes
betriebliche
betrieblichen
betriebs
betriebshof
betriebskosten
betriebsleiter
betriebsrat
betriebsrats
betriebsrent
betriebsräte
betriebsst
betriebssyst
betriebssystem
betriebsv
betriebswirt
betriebswirtschaftlichen
betriebswirtschafts
betrifft
betritt
betroff
betroffen
betroffene
betroffenen
betroffener
betroffenheit
betrogen
betrug
betrugen
betruges
betrugs
betrunk
betrunken
betrunkene
betrunkenen
betrunkener
betrvg
beträcht
beträchtlich
beträchtliche
beträchtlichen
beträchtlicher
beträg
beträge
beträgen
beträgt
betrübt
betrüg
betrügen
betrüger
betrügereien
betrügerische
betrügerischen
betrügern
bett
bettdecke
bette
betteln
betten
bettes
bettina
bettler
bettwäsche
betty
betwe
betät
betätigen
betätigt
betätigte
betätigung
betäub
betäubt
betäubung
betäubungs
betäubungsmittel
beu
beugen
beugt
beugte
beul
beunruh
beunruhigende
beunruhigt
beur
beurlaubt
beurlaubung
beurteil
beurteilen
beurteilt
beurteilte
beurteilung
beust
beut
beute
beutel
beuth
beuys
beverly
bevollmächt
bevor
bevormund
bevormundung
bevorsteh
bevorstehende
bevorstehenden
bevorzu
bevorzug
bevorzuge
bevorzugen
bevorzugt
bevorzugte
bevorzugten
bevorzugter
bevorzugung
bevölk
bevölker
bevölkern
bevölkert
bevölkerten
bevölkerung
bevölkerungs
bevölkerungsreichsten
bew
bewachen
bewacht
bewachten
bewachung
bewaff
bewaffnet
bewaffnete
bewaffneten
bewaffneter
bewaffnung
bewahr
bewahren
bewahrt
bewahrte
bewahrung
bewal
bewaldete
bewaldeten
bewarb
bewarben
beweg
bewege
bewegen
bewegende
bewegenden
beweggründe
beweggründen
beweglich
bewegliche
beweglichen
beweglichkeit
bewegt
bewegte
bewegten
bewegtes
bewegung
bewegungen
bewegungs
bewegungslos
beweis
beweisaufnahm
beweisaufnahme
beweise
beweisen
beweisführung
beweislage
beweislast
beweismaterial
beweismittel
beweist
beweiswürd
bewerb
bewerben
bewerber
bewerberin
bewerberinnen
bewerbern
bewerbung
bewerbungen
bewerbungs
bewerkstelligen
bewert
bewerten
bewertet
bewertete
bewerteten
bewertung
bewertungen
bewies
bewiesen
bewill
bewilligt
bewilligte
bewilligung
bewir
bewirbt
bewirk
bewirken
bewirkt
bewirkte
bewirtschaft
bewirtschaften
bewirtschaftet
bewirtschaftete
bewirtschaftung
bewirtung
bewogen
bewohn
bewohnen
bewohner
bewohnerin
bewohnerinnen
bewohnern
bewohnt
bewohnte
bewohnten
beworb
beworben
beworfen
bewund
bewunder
bewundere
bewunderer
bewundern
bewundernswert
bewundert
bewunderte
bewunderten
bewunderung
bewusst
bewusste
bewussten
bewusster
bewusstlos
bewusstsein
bewähr
bewährt
bewährte
bewährten
bewährter
bewährung
bewährungs
bewält
bewältigen
bewältigt
bewältigung
bewässerung
bewölkt
bewölkung
bey
beyer
beyonc
bez
bezahl
bezahlbar
bezahlbare
bezahlbaren
bezahle
bezahlen
bezahlsender
bezahlt
bezahlte
bezahlten
bezahlter
bezahlung
bezaubernd
bezaubernde
bezaubert
bezeich
bezeichn
bezeichnen
bezeichnend
bezeichnet
bezeichnete
bezeichneten
bezeichnung
bezeichnungen
bezeugen
bezeugt
bezi
bezichtigt
bezichtigte
bezieh
beziehe
beziehen
bezieher
bezieht
beziehung
beziehungen
beziehungs
beziehungsweis
beziff
beziffern
beziffert
bezifferte
bezir
bezirk
bezirke
bezirken
bezirkes
bezirklichen
bezirks
bezirksamt
bezirksamtes
bezirksgericht
bezirksklasse
bezirksliga
bezirksligist
bezirksligisten
bezirksverordnetenversammlung
bezog
bezogen
bezogene
bezogenen
bezos
bezug
bezugnahm
bezugsfertig
bezuschusst
bezwang
bezwangen
bezwei
bezweifeln
bezweifelt
bezweifelte
bezweifle
bezwingen
bezwingt
bezwungen
bezüg
bezüge
bezügen
bezüglich
beängstig
beängstigend
beängstigt
bfc
bfh
bfhe
bft
bfv
bg
bgb
bgbl
bgh
bghz
bh
bhc
bi
bian
bianca
bianchi
biat
biathleten
biathletin
biathlon
bib
bibel
biber
biberach
bibi
bibl
biblioth
bibliothek
bibliothekar
bibliotheken
biblis
biblische
biblischen
biden
bie
bieber
biedenkopf
biederen
biedermann
biegen
biegt
biegung
biel
bielefeld
bielefelder
bien
biene
bienen
biennale
bier
biere
bierflasche
biergarten
biergärten
bierhoff
biermann
bierofka
biesenbach
biest
biet
biete
bieten
bietenden
bieter
bietet
bietigheim
big
bigband
bike
biker
bikini
bil
bilanz
bilanzen
bilanziert
bilanzierte
bilanzsumme
bilat
bilateral
bilaterale
bilateralen
bilbao
bild
bildband
bilde
bilden
bildende
bildenden
bildender
bilder
bilderbuch
bildergalerie
bildern
bilderrahmen
bildes
bildet
bildete
bildeten
bildfläche
bildhau
bildhauer
bildhauerei
bildhauerin
bildhauers
bildlich
bildmaterial
bildnis
bildqualität
bildschirm
bildschirme
bildschirmen
bildung
bildungs
bildungsstätte
bildungssystem
bildungswesen
bilfinger
bilk
bilker
bill
billboard
billie
billig
billige
billigem
billigen
billigend
billiger
billigere
billigeren
billiges
billigflieger
billigste
billigsten
billigte
billigung
billion
billionen
billy
bim
bimschg
bin
bind
binde
bindeglied
binden
bindend
bindende
binder
bindet
bindung
bindungen
bing
bingen
binn
binnen
binnenmarkt
binz
bio
biochemie
biodiversität
biogas
biogasanlage
biografie
biografien
biographi
biographie
biolog
biologe
biologen
biologi
biologie
biologin
biologisch
biologische
biologischen
biologischer
biom
biomasse
biometrischen
biosphärenreservat
biosprit
biotechnologi
biotechnologie
biotop
bip
bir
bird
birg
birgit
birgitta
birgt
birk
birke
birken
birkenwerder
birma
birmingham
birnbacher
birnbaum
birne
birnen
bis
bisch
bischen
bischof
bischoff
bischofs
bischofshofen
bischofssitz
bischofsweih
bischofsweihe
bischö
bischöf
bischöfe
bischöfen
bischöfin
bischöflichen
bish
bisher
bisherige
bisherigem
bisherigen
bisheriger
bisheriges
bisky
bislang
bismarck
bismarcks
bismarckstrasse
biss
bissch
bisschen
bissen
bisserl
bissigen
bist
bistro
bistum
bistums
bistümer
bisweil
bisweilen
bit
bitcoin
bitcoins
bitkom
bits
bitt
bitte
bitten
bittencourt
bitter
bittere
bitteren
bitterer
bitteres
bitterfeld
bitterfelder
bitterkeit
bitterlich
bittersten
bitteschön
bittet
bittner
bizarr
bizarre
bizarren
bj
bjarne
björn
bk
bka
bkk
bl
bla
black
blackberry
blackburn
blackhawks
blackout
blair
blake
blamablen
blamage
blamiert
blan
blanc
blanche
blanco
blank
blanke
blanken
blankenburg
blankenheim
blanker
blas
blase
blasen
blaskapelle
blasmusik
blasorchester
blass
blasse
blassen
blasser
blatt
blatter
blattes
blattspreite
blau
blaue
blauem
blauen
blauer
blaues
blaulicht
blaupause
blauäug
blazer
ble
blech
blei
bleib
bleibe
bleiben
bleibende
bleibenden
bleiberecht
bleibst
bleibt
bleich
bleiche
bleichen
bleistift
blende
blenden
blendend
blendet
blessing
blessur
blessuren
blick
blicke
blicken
blickes
blickfang
blickfeld
blickpunkt
blickt
blickte
blickten
blickwinkel
blie
blieb
bliebe
blieben
blies
blind
blinde
blinden
blinder
blindgänger
blindheit
blindlings
blink
blinker
blinzelte
blitz
blitze
blitzeinschlag
blitzen
blitzenden
blitzer
blitzschlag
blitzschnell
blitzt
blitzte
blitzten
blizzard
blo
bloch
block
blockad
blockade
blockaden
blockbuster
blockchain
blocki
blockier
blockieren
blockiert
blockierte
blockierten
blocks
blog
blogeintrag
blogger
bloggerin
blogs
blond
blonde
blonden
blonder
blondes
blondine
blood
bloom
bloomberg
blos
bloss
blosse
blossem
blossen
blosser
blosses
blu
blue
blues
bluetooth
blum
blume
blumen
blumenstra
blumenstrauss
blumenthal
bluse
blusen
blut
blutbad
blutdruck
blute
blutende
blutenden
blutentnahme
blutes
blutgefässe
bluthochdruck
blutig
blutige
blutigen
blutiger
blutkörperchen
blutprobe
blutproben
blutspenden
blutspuren
bluttat
bluttest
blutung
blutungen
blutvergiessen
blutwerte
blutzucker
bläck
bläser
blässe
bläst
blätt
blättchen
blätter
blättern
blättert
blätterte
blö
blöcke
blöcken
blöd
blöde
blöden
blödheit
blödsinn
blösse
blü
blüh
blühen
blühende
blühenden
blüht
blühte
blüm
blümchen
blüt
blüte
blüten
blütenstand
blütenstände
blütezeit
bm
bmg
bmi
bmt
bmw
bn
bnd
bnp
bo
board
boards
boateng
bob
bobadilla
bobby
bobic
bobingen
bobinger
boca
boch
bocholt
bochum
bochumer
bock
bockum
bod
bode
boden
bodenbelag
bodenbeläge
bodenfreiheit
bodenhaftung
bodenplatte
bodens
bodenschätze
bodense
bodensee
bodenständig
bodenständige
bodentiefe
bodentiefen
bodentruppen
bodo
body
bodyguards
bodzek
boeing
bog
bogdan
bogen
bogenschiessen
bogenschützen
bogot
bohlen
bohn
bohnen
bohr
bohren
bohrer
bohrloch
bohrte
bohrung
bohrungen
bois
boko
bol
boliden
boliv
bolivianischen
bolivien
boll
boller
bollwerk
bolog
bologna
bolsonaro
bolt
boltenhagen
bolton
bolzplatz
bom
bomb
bombardement
bombardements
bombardi
bombardier
bombardiert
bombardierung
bombast
bombay
bombe
bomben
bombenangriff
bombenangriffe
bombenanschlag
bombendrohung
bomber
bombig
bommel
bon
bona
bonaparte
bonbon
bonbons
bond
bonds
bondscoach
boni
bonifatius
bonität
bonn
bonner
bonnie
bono
bonus
bonuszahlungen
book
boom
boomende
boomenden
boomt
boot
boote
booten
bootes
boots
bootshaus
bor
bora
borchert
bord
bordcomputer
bordeaux
bordell
borg
boris
borissow
borken
born
borna
bornaer
borneo
bornheim
borniert
borough
borowski
borsten
borussen
borussia
borussias
bos
bosbach
bosch
bose
boshaft
bosheit
bosn
bosni
bosnien
bosnier
bosnische
bosnischen
bosporus
bosque
boss
bosse
boston
bostoner
bosz
bot
botan
botanik
botaniker
botanischen
bote
boten
bots
botschaft
botschaften
botschafter
botschafterin
botschafters
bott
bottas
bottrop
bouffier
boul
boulevard
boulevardblatt
bour
boutique
boutiquen
bow
bowie
bowl
box
boxen
boxengasse
boxenstopp
boxer
boxing
boxster
boxte
boxweltmeister
boy
boyd
boykott
boyle
boys
boz
bozen
bp
br
bra
brabeck
brach
brachen
bracht
brachte
brachten
brad
bradl
bradley
brady
brahms
brake
bram
bran
branch
branche
branchen
branchendienst
branchenführer
branchenkenner
branchenprimus
brand
brandanschlag
brandenburg
brandenburger
brandenburgische
brandenburgischen
brandenburgs
brandes
brandis
brandl
brandmeldeanlage
brandner
brandneu
brandon
brandort
brands
brandschutz
brandschützer
brandstifter
brandstiftung
brandt
brandts
brandung
brandursache
brannt
brannte
brannten
branntwein
branson
brasil
brasili
brasilian
brasilianer
brasilianers
brasilianische
brasilianischen
brasilianischer
brasilien
brasiliens
brass
brat
braten
bratislava
bratwurst
brau
brauch
brauchbare
brauchbaren
brauche
brauchen
brauchst
braucht
brauchte
brauchten
brauchtum
brauen
brauer
brauerei
brauereien
brauhaus
braun
braune
braunem
braunen
brauner
braunes
braunkohle
braunsbedra
braunschwei
braunschweig
braunschweiger
brausen
brauste
braut
brautkleid
brautpaar
brav
brave
braven
braver
bravo
bravour
bravourös
brawn
brd
bre
break
breakfast
brech
breche
brechen
brecht
brechts
bregenz
brei
breis
breisgau
breisgauer
breit
breitband
breite
breitem
breiten
breitenbach
breitenreiter
breitensport
breiter
breitere
breiteren
breites
breitet
breitete
breiteten
breitgefächert
breitkopf
breitner
breitscheid
breivik
brem
bremen
bremens
bremer
bremerhav
bremerhaven
bremerhavener
bremse
bremsen
bremst
bremste
brendan
brendel
brenn
brennen
brennend
brennende
brennenden
brennender
brennendes
brenner
brennholz
brennpunkt
brennpunkten
brennstoff
brennstoffe
brennt
breno
brent
bres
bresche
brescia
breslau
breslauer
brest
bret
bretagne
brett
bretter
brettern
breuer
brexit
brexits
brezel
bri
brian
bricht
bridg
bridge
brie
brief
briefe
briefen
briefes
briefkasten
briefkästen
briefmarke
briefmarken
brieftasche
briefträger
briefwahl
briefwechsel
brig
brigad
brigade
brigadegeneral
brigaden
brighton
brigitt
brigitta
brigitte
brill
brillant
brillante
brillanten
brillanz
brille
brillen
brilli
brilliant
brillierte
bring
bringe
bringen
brings
bringst
bringt
brink
brinkhaus
brinkmann
bris
brisant
brisante
brisanten
brisanz
brisbane
brise
bristol
brit
britannien
brite
briten
britin
britisch
britische
britischem
britischen
britischer
britisches
british
britney
britta
brk
bro
broad
broadcasting
broadway
brock
brocken
brod
brodelt
broder
broich
brok
broker
brom
bromwich
bron
bronx
bronz
bronze
bronzemed
bronzemedaill
bronzemedaille
bronzene
bronzezeit
brook
brooke
brooklyn
brooks
brosch
broschür
broschüre
broschüren
brose
brot
brote
broth
brother
brothers
brow
brown
browns
brows
browser
browsers
brt
bru
bruc
bruce
bruch
bruchhagen
bruchlandung
bruchstücke
bruchteil
bruck
brucker
bruckner
brud
bruder
bruders
bruderschaft
brugger
bruins
brummig
brummt
brummte
brun
bruni
brunn
brunnen
brunnens
brunner
bruno
bruns
brunsbüttel
brust
brustkorb
brustkrebs
brut
brutal
brutale
brutalen
brutaler
brutalität
brutt
brutto
bruttoin
bruttoinland
bruttoinlandsprodukt
bruttoinlandsproduktes
bruttoinlandsprodukts
brutzeit
bruyne
bryan
bryant
brych
brä
brächte
brächten
brände
bränden
bräuche
bräuchte
bräuchten
bräunlich
bräutigam
bröckelt
bröcker
brötchen
brü
brüche
brüchig
brück
brücke
brücken
brückenkopf
brücker
brückner
brüd
brüder
brüderle
brüdern
brügge
brüggen
brühe
brühl
brühler
brüllen
brüllt
brüllte
brün
brünn
brüssel
brüsseler
brüste
brüsten
brüstung
brüten
brütet
bs
bsc
bsg
bsge
bsi
bsirske
bstbl
bsv
bt
bu
bub
buback
buben
bubesheim
buch
buchautor
buchbauer
buche
buchen
buchenwald
bucher
buches
buchführung
buchhalter
buchhaltung
buchhandel
buchhandels
buchhandlung
buchhandlungen
buchholz
buchhändler
buchmacher
buchmann
buchmesse
buchpreis
buchs
buchsta
buchstab
buchstabe
buchstaben
buchstäblich
bucht
buchten
buchung
buchungen
buchwald
buck
buckel
buckingham
bucks
bud
budap
budapest
budapester
budberg
budde
buddh
buddha
buddhismus
buddhistische
buddhistischen
buddy
bude
buden
budget
budgets
buen
buenos
buff
buffalo
buffet
buffett
buffon
bug
bugatti
bugs
buhl
buhlen
building
buk
bukar
bukarest
bul
bulgar
bulgaren
bulgari
bulgarien
bulgariens
bulgarische
bulgarischen
bull
bulle
bullen
bullerjahn
bulli
bullock
bulls
bully
bummel
bun
bund
bunde
bundes
bundesagentur
bundesamt
bundesamtes
bundesamts
bundesanleihen
bundesanstalt
bundesanwalt
bundesanwaltschaft
bundesarbeit
bundesarbeitsministerin
bundesautobahn
bundesbahn
bundesbank
bundesbehörde
bundesbehörden
bundesbildungsministerin
bundesbürger
bundesbürgern
bundesdeutsche
bundesebene
bundesfamilienministerin
bundesfinanz
bundesfinanzhof
bundesgartenschau
bundesgebiet
bundesgericht
bundesgesundheitsministerium
bundeshaushalt
bundesinn
bundesinstitut
bundesk
bundeskabinett
bundeskanzl
bundeskanzler
bundeskanzlers
bundeskartellamt
bundeskriminalamt
bundeskriminalamtes
bundeskriminalamts
bundesl
bundesland
bundeslandes
bundesliga
bundesligist
bundesligisten
bundesländ
bundesländer
bundesländern
bundesminister
bundesministerin
bundesministerium
bundesministeriums
bundesmittel
bundesnetzagentur
bundespartei
bundespolitik
bundespolizei
bundesrat
bundesrates
bundesrats
bundesregier
bundesrepubl
bundesrepublik
bundesrichter
bundess
bundessozial
bundesstaat
bundesstaaten
bundesstaates
bundesstaats
bundesstrass
bundesstrasse
bundesstrassen
bundestag
bundestages
bundestags
bundestagswahl
bundestrain
bundestrainer
bundestrainerin
bundestrainers
bundesv
bundesverband
bundesverbands
bundesverdienstkreuz
bundesverfassungsgericht
bundesverfassungsgerichts
bundesverkehrsministerium
bundesverteidigungsminister
bundesvorstand
bundeswehr
bundesweit
bundesweite
bundesweiten
bundesweiter
bundesweites
bundeswirtschaftsministerium
bundeszentrale
bungalow
bungalows
bunker
bunt
bunte
buntem
bunten
bunter
buntes
bur
burda
bureau
burg
burganlage
burgau
burgen
burgenland
burger
burghardt
burghausen
burgplatz
burgruine
burgstall
burgstaller
burgstrasse
burgtheater
burgund
burk
burka
burke
burkhard
burkhardt
burkina
burma
burnout
burns
bursch
bursche
burscheid
burscheider
burschen
burschenschaft
burton
bus
busbahnhof
busch
buschkamp
buschmann
busen
busfahrer
busfahrt
bush
bushaltestelle
bushido
bushs
business
buslinie
buslinien
buss
busse
bussen
busses
bussgeld
bussgelder
bussgeldern
busunglück
busunternehmen
busverkehr
but
butler
butt
butter
button
buttons
buxtehude
buyten
buzz
bv
bvb
bvdi
bver
bverfg
bverwg
bvg
bvl
bvr
bvt
bvv
bw
by
byron
byz
byzantin
byzantinische
byzantinischen
byzanz
bz
bzw
bä
bäche
bächen
bäck
bäcker
bäckerei
bäckereien
bäckermeister
bäd
bäder
bädern
bälle
bällen
bänd
bändchen
bände
bänden
bänder
bändern
bänderriss
bänke
bänken
bär
bärbel
bären
bärenstark
bässe
bäuerin
bäuerliche
bäuerlichen
bäum
bäumchen
bäume
bäumen
bö
böblingen
böd
böden
böen
bögen
böger
böh
böhlen
böhler
böhm
böhme
böhmen
böhmer
böhmermann
böhmermanns
böhmische
böhmischen
böhnhardt
böll
böller
böllern
bör
börde
börner
börs
börse
börsen
börsenaufsicht
börsengang
börsennotierte
börsennotierten
börsenschluss
börsenwert
börsianer
bös
bösart
bösartige
bösartigen
böschung
böse
bösen
böser
böses
bösewicht
bösinghoven
böte
böten
böttcher
bü
büch
bücher
bücherei
büchern
bücherschau
büchlein
büchner
büchs
büchse
bückte
büderich
büdericher
büfett
büffel
bügel
bühl
bühler
bühn
bühne
bühnen
bühnenbild
bühnenbildner
bühnenprogramm
bülent
büllesbach
bülow
bünde
bündel
bündeln
bündelt
bündelung
bündner
bündnis
bündnispartner
bündnisse
bündnisses
bür
bürd
bürde
büren
bürg
bürger
bürgerbegehren
bürgerbewegung
bürgerbüro
bürgerhaus
bürgerin
bürgerinnen
bürgerkrieg
bürgerkrieges
bürgerkriegs
bürgerlich
bürgerliche
bürgerlichem
bürgerlichen
bürgerlicher
bürgerliches
bürgermeist
bürgermeister
bürgermeisterei
bürgermeisterin
bürgermeistern
bürgermeisters
bürgern
bürgerrecht
bürgerrechte
bürgerrechtler
bürgerrechts
bürgers
bürgerschaft
bürgerschafts
bürgersteig
bürgersteige
bürgerstiftung
bürgertum
bürgerverein
bürgervereins
bürgerwehr
bürgschaft
bürgschaften
bürki
büro
bürofläche
büroflächen
bürogebäude
bürokratie
bürokratische
bürokratischen
büroleiter
büroräume
büros
bürste
büsche
büschen
büskens
büssen
büsste
büssten
büste
bütikofer
büttgen
büttner
c
ca
cab
cabrio
cabriolet
cabrios
cacau
cad
caddy
cadillac
caes
caesar
caf
cafe
cafeteria
caffier
cafs
cage
cagliari
cal
cala
calais
calbe
calcio
calendar
calgary
calhanoglu
california
caligiuri
call
calmund
calvin
cam
camb
cambridg
cambridge
camera
cameron
camerons
camilla
camille
camp
campbell
camper
camping
campingplatz
campino
campo
camps
campus
can
canad
canada
canadian
canadiens
canal
canaria
canaveral
canberra
cancer
cann
cannabis
cannes
canon
cant
canterbury
canyon
cap
cape
capello
capital
capitals
capitol
cappuccino
capri
capt
captain
car
cara
caracas
caravan
carb
carbon
card
cardiff
care
carey
cargo
carina
caritas
caritasverband
carl
carla
carles
carlisle
carlo
carlos
carlsen
carm
carmen
carnegie
carneval
caro
carol
carola
carolin
carolina
caroline
carport
carr
carrera
carrie
carroll
cars
carsharing
carson
carst
carsten
carstensen
cart
carter
caruana
cas
casa
casablanca
case
casey
cash
casillas
casino
caspar
casper
cass
cast
castell
casting
castingshow
castl
castle
castorf
castro
cat
catania
cate
caterina
catering
catharina
catherin
catherine
cathy
cattelaens
causa
cav
cavaliers
cavani
cavendish
cayenne
cayman
cb
cbs
cc
ccc
ccm
cd
cdata
cdi
cds
cdu
ce
cebit
cec
cecil
cecilia
cedric
cejka
cel
celia
celine
cell
celle
cellist
cello
celsius
celtic
celtics
cem
census
cent
center
centers
centr
central
centre
centro
centrum
century
ceo
cer
ces
cesar
cesare
cessna
ceta
cfc
cfj
ch
cha
chad
chairman
chal
chall
challeng
challenge
challenger
cham
chambers
champ
champagne
champagner
champion
champions
championship
championships
chan
chanc
chance
chancen
chancenlos
chandler
chanel
chang
change
channel
chansons
chantal
chaos
chaoten
chaotisch
chaotische
chaotischen
chap
chaplin
chapman
char
charakt
charakter
charaktere
charakteren
charakterisiert
charakterisierung
charakteristik
charakteristisch
charakteristische
charakteristischen
charakters
charakterstark
charge
charisma
charismat
charismatische
charismatischen
charit
charkow
charl
charles
charleston
charli
charlie
charlott
charlotte
charlottenburg
charlottenburger
charlottesville
charly
charm
charmant
charmante
charmanten
charme
charr
chart
charta
charts
chase
chassis
chat
chats
chauffeur
chaussee
chavez
che
check
checken
checkliste
checkpoint
chef
chefarzt
chefcoach
chefdirigent
chefetage
chefetagen
chefin
chefposten
chefredakteur
chefredakteurin
chefs
chefsache
chefsessel
cheft
cheftrain
cheftrainer
chefvolkswirt
chel
chelsea
chelseas
chem
chemi
chemical
chemie
chemiekonzern
chemiewaffen
chemik
chemikali
chemikalie
chemikalien
chemiker
chemisch
chemische
chemischen
chemischer
chemnitz
chemnitzer
chemotherapie
chen
cheney
cher
cherokee
chester
chevalier
chevrolet
chf
chi
chiang
chiara
chic
chicago
chief
chiefs
chiemsee
chihuahua
chil
children
chile
chilenen
chilenische
chilenischen
chiles
chili
chin
china
chinas
chines
chinese
chinesen
chinesin
chinesisch
chinesische
chinesischen
chinesischer
chinesisches
chio
chip
chiphersteller
chips
chirac
chirurg
chirurgen
chirurgie
chirurgische
chirurgischen
chl
chlor
cho
chodorkowski
choi
choice
cholera
chopin
chor
choreografie
choreographie
chores
chorleiter
chorraum
chors
chorweiler
chp
chr
chris
christ
christa
christbaum
christchurch
christdemokrat
christdemokraten
christel
christen
christenheit
christensen
christentum
christentums
christi
christian
christiane
christiansen
christie
christin
christina
christine
christkind
christlich
christliche
christlichen
christlicher
christliches
christmas
christo
christof
christop
christoph
christophe
christopher
christos
christsozialen
christus
christuskirche
chrom
chrome
chromos
chron
chronik
chroniken
chronisch
chronische
chronischen
chronischer
chronist
chronisten
chronologie
chronologisch
chrysler
chteau
chuck
chung
chur
church
churchill
chvez
chöre
chören
ci
cia
cicero
cilic
cin
cincinnati
cindy
cinema
cir
circa
circle
circuit
circus
ciro
cisco
cit
citigroup
citroen
citron
city
ciudad
civic
civil
cl
cla
claas
claassen
clair
claire
clan
clans
clapton
clar
clara
clarence
clark
clarke
class
classic
clau
claud
claude
claudia
claudio
claudius
claus
clay
cle
clean
clem
clemens
clement
clev
cleveland
clever
clevere
cleveren
cleverer
cleverness
click
client
clients
cliff
clifford
climate
clin
cline
clint
clinton
clintons
clio
clip
clippers
clips
clique
clo
clooney
cloppenburg
clou
cloud
clown
clowns
cls
club
clubchef
clubhaus
clubs
cluster
cm
cn
cnn
co
coach
coaches
coaching
coast
cob
cobra
coburg
coca
cock
cockpit
cockta
cocktail
cocktails
coco
cod
code
codenamen
codes
codex
codic
coffee
coh
cohen
col
cola
cole
coleman
colin
coll
collage
collagen
collect
collection
colleg
college
colleges
collegium
collin
collins
cologne
colombo
colon
colonel
colonia
color
colorado
colt
columb
columbia
columbus
com
coman
combo
comeback
comedian
comedians
comedy
comey
comic
comics
comm
command
commander
comment
commerz
commerzbank
commission
committe
committee
commodore
common
commons
commonwealth
commun
communaut
commune
communes
communication
communications
communities
community
comp
compact
compagnie
company
comput
computer
computern
computers
computerspiel
computerspiele
computing
con
conc
concept
concert
conchita
concorde
concordia
cond
condoleezza
condor
confed
confederations
conferenc
conference
congress
conn
connect
connecticut
connor
conny
conrad
conserv
conservation
const
constantin
constanze
consult
consultant
consulting
consumer
cont
contador
contain
container
containern
conte
contemporary
content
contest
conti
contin
continental
control
controller
controlling
convention
conway
cook
cooki
cookies
cool
coole
coolen
cooler
coop
cooper
cop
copa
copacabana
coppola
copyright
cor
cora
corbyn
cord
cordalis
cordes
cordoba
cordula
core
corinna
corn
cornel
cornelia
cornelius
cornell
cornwall
corp
corpor
corporat
corporate
corporation
corps
corpus
correa
corsa
cortina
corvette
cory
cos
cosby
cosmos
costa
coswig
coswiger
cott
cottbus
cottbuser
couch
couchtisch
could
couleur
coulthard
coun
counc
council
count
countdown
country
county
countys
coup
coupe
coups
cour
courage
couragiert
court
cous
cousin
cousine
cousins
coutinho
couture
cov
cover
coverversion
coverversionen
cow
cowboy
cowboys
cox
cpu
cr
cra
craig
crailsheim
cramer
cranach
crash
craw
crawford
crawled
crdoba
cre
creative
credit
credo
creek
crefelder
crem
creme
cremes
crew
crews
crick
cricket
crime
crist
cristian
cristiano
cristina
crme
cro
cronenberg
cronenberger
crosby
cross
crossover
crow
crowdfunding
crown
cru
cruise
cruiser
cruises
cruyff
cruz
cryan
crystal
cs
csar
csd
csu
ct
cte
cu
cube
cum
cup
cupertino
cups
cur
current
currently
curry
currywurst
curt
curtis
cut
cuxhaven
cvp
cy
cyb
cyber
cyberspace
cynthia
cyril
cyrus
cz
czaja
cäsar
d
da
dabei
dach
dachau
dachauer
dachboden
dachdecker
dache
daches
dachgeschoss
dachreiter
dachreling
dachs
dachstuhl
dacht
dachte
dachten
dachterrasse
dachverband
dachziegel
dacia
dackel
dad
daddy
dadurch
daegu
daenerys
dafür
dag
dageg
dagegen
dagmar
dagobert
dagur
dah
daheim
daher
dahin
dahingeh
dahingehend
dahinschwind
dahinsteh
dahint
dahinter
dahl
dahlem
dahlmeier
dahmen
dahoud
daihatsu
daily
daim
daiml
daimler
daisy
dak
dakar
dakota
dal
dalai
daldrup
dale
dall
dallas
dam
damal
damalige
damaligen
damaliger
damals
damaskus
dame
damen
damian
damien
damir
damit
damm
damon
dampf
dampfer
dampfmaschine
dan
dana
danach
danc
dance
daneb
daneben
dani
daniel
daniela
daniele
daniels
daniil
danilo
dank
dankbar
dankbare
dankbarkeit
danke
danken
dankend
dankeschön
dankesrede
dankt
dankte
dankten
dann
dannen
dannenberg
danner
danny
dante
dantes
danzig
danziger
dar
daran
darauf
darauffolg
daraufhin
daraus
darb
darbietung
darbietungen
dardai
darein
darf
darfst
darfur
dargelegt
dargestellt
dargestellte
dargestellten
dargetan
darin
dario
darius
dark
darknet
darleg
darleh
darlehen
darlehensv
darm
darmkrebs
darmstadt
darmstädter
darnach
darren
darstell
darstellen
darstellende
darsteller
darstellerin
darstellern
darstellt
darstellung
darstellungen
darth
darts
darum
darunt
darunter
darwin
darzuleg
darzustell
darzustellen
darüb
darüber
das
dasein
daseins
daselbst
dasing
dasjenige
dass
dasselb
dasselbe
dassow
dastehen
dat
data
date
datei
dateien
daten
datenaustausch
datenbank
datenbanken
datenmengen
datensammlung
datensatz
datenschutz
datenschutzbeauftragte
datenschutzbeauftragten
datenschutzes
datenschützer
datenschützern
datenspeicherung
datensätze
datenträger
datenverkehr
datenvolumen
datieren
datiert
datierten
datierung
dato
datteln
datum
dau
dauer
dauerbrenner
dauere
dauerhaft
dauerhafte
dauerhaften
dauerhafter
dauerhaftes
dauerkarten
dauern
dauernd
dauernde
dauernden
dauerregen
dauert
dauerte
dauerten
daum
daumen
dav
dave
david
davide
davids
davidson
davie
davies
davis
davon
davor
davos
davutoglu
dawn
dawson
dax
day
days
daz
dazu
dazug
dazugehörige
dazugehörigen
dazwisch
dazwischen
db
dc
ddr
de
dead
deaktiviert
deal
dealer
deals
dean
death
deb
debakel
debatt
debatte
debatten
debattieren
debattiert
debbie
debian
debil
deborah
debü
debüt
debütalbum
debütant
debütiert
debütierte
debütroman
dec
decemb
dechant
deck
decke
deckel
deckelung
decken
decker
deckmantel
decknamen
deckt
deckte
deckten
deckung
deckungsgleich
dedert
dee
deep
deeskalation
def
defekt
defekte
defekten
defekter
defekts
defence
defender
defense
defensiv
defensive
defensiven
defensivspieler
defin
defini
definieren
definiert
definierte
definierten
definition
definitionen
definitiv
definitive
defiz
defizit
defizite
defiziten
defizitär
defizitären
deflation
deformation
deformi
deftige
deftigen
deg
degen
degenkolb
deggendorf
degradi
degradier
degradiert
dehnt
dehnte
dei
deich
deiche
dein
deine
deinem
deinen
deiner
deines
deinstalli
deinstalliert
deisler
dejan
dek
dekade
dekaden
dekadent
dekadenz
dekan
dekanat
deklariert
deko
dekor
dekoration
dekorationen
dekorative
dekorativen
dekoriert
dekorierten
dekra
dekret
del
delaware
deleg
delegation
delegationen
delegiert
delegierte
delegierten
delegierter
deleted
delfine
delhi
delikatesse
delikte
delikten
delitzsch
delitzscher
delivery
dell
della
delle
dello
delmenhorst
delphi
delphin
delta
deluxe
dem
demba
dembl
dementi
dementiert
dementierte
dementsprech
demenz
demenzkranke
demgegenüb
demgegenüber
demi
demichelis
demirbay
demjanjuk
demjenigen
demnach
demnig
demnäch
demnächst
demo
democ
democratic
demografische
demografischen
demographischen
demokrat
demokraten
demokrati
demokratie
demokratien
demokratin
demokratisch
demokratische
demokratischen
demokratischer
demokratisches
demokratisierung
demon
demonstr
demonstrant
demonstranten
demonstration
demonstrationen
demonstrations
demonstrativ
demonstri
demonstrieren
demonstriert
demonstrierte
demonstrierten
demontage
demontiert
demos
demselb
demselben
demut
demzufolge
demüt
demütig
demütigung
demütigungen
den
denen
deng
denis
denisa
denise
deniz
denjen
denjenigen
denk
denkbar
denkbare
denkbaren
denke
denken
denkende
denkenden
denkens
denker
denkfabrik
denkfaul
denkfehl
denkm
denkmal
denkmalgesch
denkmalgeschützten
denkmalgeschütztes
denkmalliste
denkmalpflege
denkmals
denkmalschutz
denkmäler
denkst
denkt
denkweise
denkwürd
denkwürdige
denkwürdigen
denkzettel
denn
dennis
dennoch
denny
denselb
denselben
denver
dep
depardieu
depart
departament
departamento
departement
departements
department
depeche
dependance
depesche
deponie
deponiert
deport
deportation
deportiert
deportivo
depot
depots
depp
depression
depressionen
depressiv
depressive
depressiven
deprimiert
der
derart
derartig
derartige
derartigen
derartiger
derartiges
derb
derbe
derben
derby
derbys
dereinst
derek
deren
derer
dergestalt
dergleichen
derivate
derjen
derjenige
derjenigen
derlei
dermassen
derrick
derselb
derselbe
derselben
derweil
derzei
derzeit
derzeitige
derzeitigem
derzeitigen
derzeitiger
des
desast
desaster
desaströse
desaströsen
deschamps
desgleichen
deshalb
design
designer
designerin
designern
designers
designierte
designierten
designierter
designs
desinformation
desinteress
desinteresse
desktop
desolat
desolate
desolaten
despoten
dess
dessau
dessauer
desselb
desselben
dessen
dessert
dest
destabilisierung
desto
destruktiv
desweg
deswegen
desweiteren
det
deta
detail
detaill
detailliert
detaillierte
detaillierten
detaillierter
details
detec
detectiv
detektiv
detlef
detlev
detmold
detonation
detroit
deu
deut
deute
deuten
deutet
deutete
deuteten
deutlich
deutliche
deutlichem
deutlichen
deutlicher
deutlichere
deutliches
deutlichkeit
deutlichsten
deutsch
deutsche
deutschem
deutschen
deutscher
deutsches
deutschland
deutschlands
deutschlandweiten
deutschsprachige
deutschsprachigen
deutschsprachiger
deutung
deutungen
deutungshoheit
deutz
deutzer
deutzmann
dev
developer
development
devils
devis
devise
devisen
devisenmarkt
dez
dezemb
dezember
dezent
dezente
dezenten
dezentral
dezentrale
dezentralen
dezernat
dezernent
dezibel
dezidiert
dezimi
dezimier
df
dfb
dfl
dg
dgb
dhabi
dhb
dhc
dhfk
dhl
di
dia
diabet
diabetes
diabetiker
diagn
diagnos
diagnose
diagnosen
diagnost
diagnostik
diagnostiziert
diagnostizierten
diagonale
diakon
diakonie
diakonischen
dial
dialekt
dialekte
dialektik
dialog
dialoge
dialogen
dialogs
diam
diamant
diamanten
diamond
diana
diane
diaspora
diaz
dicaprio
dich
dicht
dichte
dichtem
dichten
dichter
dichterin
dichtern
dichters
dichtes
dichtesten
dichtkunst
dichtung
dichtungen
dick
dicke
dickem
dicken
dickens
dicker
dickes
dickicht
dicksten
did
didi
didier
die
dieb
diebe
dieben
diebesgut
diebstahl
diebstahls
diebstähle
diebstählen
dieckmann
diederichs
diedorf
diedrich
diego
diehl
diejen
diejenige
diejenigen
diekmann
diel
diele
dien
diene
dienen
dienende
dienenden
diener
dienerin
dienern
dienerschaft
dienlich
dienst
dienstag
dienstagab
dienstagabend
dienstagmittag
dienstagmorgen
dienstags
dienstboten
dienste
diensten
dienstes
dienstgrad
dienstherrn
dienstleist
dienstleister
dienstleistern
dienstleistung
dienstleistungen
dienstleistungs
dienstlich
dienstliche
dienstlichen
dienstmädchen
dienstpost
dienstreise
dienstsitz
dienststell
dienststelle
dienststellen
dienstwagen
dienstzeit
dienstälteste
dient
diente
dienten
dies
diesb
diesbezü
diesbezüg
diesbezüglich
diesbezügliche
diesbezüglichen
diese
diesel
dieselautos
dieselb
dieselbe
dieselben
dieselmotor
dieselmotoren
dieselskandal
diesem
diesen
dieser
dieses
diesjähr
diesjährige
diesjährigen
diesmal
diess
diesseits
diessen
diet
dieter
dietmar
dietrich
dietz
diez
diff
diffami
diffamier
different
differenz
differenzen
differenzier
differenziert
differenzierte
differenzierten
differenzierter
differenzierung
diffizil
diffus
diffuse
dig
digit
digital
digitale
digitalen
digitaler
digitales
digitalisier
digitalisiert
digitalisierung
digitalkamera
digitalkameras
dijsselbloem
dikt
diktat
diktator
diktatoren
diktators
diktatur
diktaturen
diktieren
diktiert
dil
dildo
dilemma
dilettant
dill
dillingen
dillinger
dilma
dimap
dimension
dimensionen
dimitri
dimitrij
dimitris
dimokratia
din
dinamo
diner
ding
dingden
dinge
dingen
dinger
dingfest
dinkelscherben
dinner
dino
dinosaurier
dinslaken
dinslakener
dion
dior
dipl
diplom
diplomarbeit
diplomat
diplomaten
diplomatie
diplomatisch
diplomatische
diplomatischen
diplomatischer
dir
director
direkt
direkte
direktem
direkten
direkter
direktes
direktion
direktkandidat
direktmandat
direktor
direktoren
direktorin
direktorium
direktors
direktwahl
dirig
dirigent
dirigenten
dirigiert
dirigierte
dirk
dirn
dirndl
dirne
dis
disco
discounter
discountern
discounters
discovery
disk
diskon
diskontiert
diskothek
diskotheken
diskrediti
diskrepanz
diskret
diskrete
diskretion
diskrimin
diskriminier
diskriminiert
diskriminierung
disku
diskurs
diskuss
diskussion
diskussionen
diskussions
diskut
diskuti
diskutieren
diskutiert
diskutierte
diskutierten
disney
disneyland
display
displays
disposition
disput
disqualifikation
disqualifiziert
diss
dissens
dissert
dissertation
dissidenten
dist
distanz
distanzen
distanzieren
distanziert
distanzierte
distanzierung
distanzschuss
distribution
district
distrik
distrikt
distrikte
distrikts
disziplin
disziplinar
disziplinen
diszipliniert
disziplinlos
dithmarschen
ditib
dittrich
div
diva
divers
diverse
diversen
diverser
diversität
divid
dividende
dividenden
divis
divisin
division
divisionen
diw
dix
diät
diäten
diöz
diözes
diözese
diözesen
dj
djk
djokovic
djs
dl
dll
dlr
dlrg
dlv
dm
dme
dmitri
dn
dna
dne
dns
dnu
do
dob
doberan
dobrindt
doc
doch
docht
dock
doctor
documenta
dod
dodge
dog
dogan
dogma
doha
doherty
dohmen
dok
dokt
doktor
doktoranden
doktorarbeit
doktors
doktortitel
doktrin
doku
dokum
dokument
dokumentar
dokumentarf
dokumentarfilm
dokumentation
dokumentationen
dokumente
dokumenten
dokumenti
dokumentieren
dokumentiert
dokumentierte
dokumentierten
dol
dolby
dolce
dolch
dolega
doll
dollar
dollars
dolly
dolmen
dolmet
dolmetscher
dolomit
dom
domain
domains
dome
domenico
domes
domherr
domin
dominant
dominante
dominanten
dominanz
domingo
domini
dominic
dominier
dominieren
dominierende
dominierenden
dominiert
dominierte
dominierten
dominik
dominikanische
dominikanischen
dominique
domizil
domkap
domkapitel
doms
domstadt
domäne
don
donald
donau
donauwörth
donauwörther
donbass
donezk
dong
donn
donna
donner
donnerstag
donnerstagab
donnerstags
donnerte
donovan
doof
dopfer
doping
dopings
dopingsperre
dopp
doppel
doppelbett
doppeldeut
doppelgarage
doppelgänger
doppelhaus
doppelhaushalt
doppelhaushälfte
doppelhaushälften
doppelkupplungsgetriebe
doppelpack
doppelpass
doppelschlag
doppelsieg
doppelspiel
doppelspitze
doppelt
doppelte
doppelten
doppelter
doppeltes
doppelzimm
doppelzimmer
dor
dora
doreen
dorf
dorfbewohner
dorfe
dorfen
dorfener
dorferneuerung
dorfes
dorffest
dorfgemeinschafts
dorfkirche
dorfplatz
dorfstrasse
dorian
doris
dormagen
dormagener
dorn
dornen
dornröschen
doroth
dorothea
dorothee
dorothy
dort
dorthin
dortig
dortige
dortigen
dortmund
dortmunder
dortmunds
dos
dosb
dose
dosen
dosiert
dosierung
dosis
dossier
dost
dot
dotcom
dotiert
dotierte
dotierten
dou
douard
double
doug
douglas
dover
dow
down
downey
downing
download
downloads
doyle
dozent
dozenten
dozentin
dpa
dpart
dpartement
dpartements
dr
dra
drach
drache
drachen
draft
drag
draghi
dragon
dragons
draht
drahtesel
drahtlos
drahtlose
drahtlosen
drahtzieher
draisaitl
drake
dram
drama
dramas
dramat
dramatik
dramatiker
dramatisch
dramatische
dramatischen
dramatischer
dramatisches
dramaturg
dramaturgie
dramen
dran
drang
drangen
drangsal
drast
drastisch
drastische
drastischen
drastischer
drauf
draus
drauss
draussen
draxler
dre
dream
drebes
drechsler
dreck
dreckig
dreckige
dreckigen
dreh
dreharbeit
dreharbeiten
drehbuch
drehbuchautor
drehbücher
drehe
drehen
dreher
drehkreuz
drehleiter
drehmoment
drehort
drehscheibe
dreht
drehte
drehten
drehung
drehzahl
drehzahlen
drei
dreidimensionale
dreidimensionalen
dreieck
dreieckigen
dreieinhalb
dreien
dreier
dreierpack
dreifach
dreifache
dreifachen
dreifacher
dreigeschossige
dreigestirn
dreihundert
dreijahresvertrag
dreijährige
dreijährigen
dreijähriger
dreikampf
dreiköpfige
dreiländereck
dreimal
dreimalige
dreimaligen
dreimonatigen
drein
dreischiffige
dreissig
dreissiger
dreissigjähr
dreist
dreiste
dreistellige
dreistelligen
dreistelliger
dreisten
dreistündigen
dreit
dreitausend
dreiteilige
dreiteiligen
dreitägige
dreitägigen
dreiviertel
dreiviertelstunde
dreiwöchigen
dreizehn
dres
dresd
dresden
dresdener
dresdens
dresdn
dresdner
dresen
dress
dressel
dressen
dressur
drew
drews
drexler
dreyer
drhv
drift
drin
dring
dringen
dringend
dringende
dringenden
dringender
dringendsten
dringlichkeit
dringt
drink
drinks
drinn
drinnen
drit
dritt
dritte
drittel
dritteln
drittels
dritten
drittens
dritter
drittes
drittgrösste
drittgrössten
dritthöchste
drittklassigen
drittletzten
drittligist
drittligisten
drittländ
drittstaaten
drittstärkste
drive
drk
drmic
dro
droben
drobny
drog
drogba
droge
drogen
drogendealer
drogeneinfluss
drogenhandel
drogenhandels
drogenhändler
drogenkonsum
drogerie
drogeriekette
drogeriemarkt
droh
drohe
drohen
drohend
drohende
drohenden
drohender
drohne
drohnen
droht
drohte
drohten
drohung
drohungen
droschke
drossel
drosseln
drosselung
droste
droyssig
dru
druck
drucke
drucken
drucker
druckerei
druckmittel
drucks
druckt
druckte
drum
drumherum
drummer
drunten
drunter
drähte
drän
dräng
drängelnd
drängen
drängende
drängenden
drängt
drängte
drängten
dröhnt
drüb
drüben
drüber
drück
drücke
drücken
drücker
drückt
drückte
drückten
ds
dsa
dsc
dsch
dschihad
dschihadisten
dschihadistenmiliz
dschungel
dschungelcamp
dsds
dse
dsg
dsgvo
dsire
dsl
dsv
dt
dtm
du
dual
duale
dualen
dub
dubai
dubiose
dubiosen
dublin
ducati
duck
ducks
duda
duden
dudenhöffer
duell
duelle
duellen
duells
duett
duft
duftende
duftenden
duftet
duh
duis
duisburg
duisburger
duisburgs
duk
dukaten
duke
dul
dulden
duldet
duldung
dulig
dum
duma
dumm
dumme
dummen
dummer
dummerweise
dummes
dummheit
dummheiten
dummkopf
dumont
dumpf
dumpfe
dumpfen
dumpfer
dumpfes
dun
duncan
dunja
dunk
dunkel
dunkelblauen
dunkelbraun
dunkelheit
dunkeln
dunkelsten
dunkelziffer
dunkl
dunkle
dunklem
dunklen
dunkler
dunkles
dunst
duo
duos
dur
durant
durban
durch
durchaus
durchblick
durchblicken
durchblutung
durchbrach
durchbrechen
durchbrochen
durchbruch
durchdacht
durchdachte
durchdachten
durchdringen
durchdrungen
durcheinand
durcheinander
durchfahrt
durchfall
durchfliesst
durchführ
durchführen
durchführung
durchg
durchgang
durchgangs
durchgeführt
durchgeführte
durchgeführten
durchgeh
durchgehen
durchgehend
durchgehende
durchgehenden
durchgemacht
durchgesetzt
durchgezogen
durchgängen
durchgängig
durchhalt
durchhalte
durchhalten
durchkommen
durchlaucht
durchlaufen
durchlebt
durchlief
durchläuft
durchmarsch
durchmess
durchmesser
durchqu
durchqueren
durchquert
durchs
durchschaut
durchschlag
durchschlagskraft
durchschnitt
durchschnittlich
durchschnittliche
durchschnittlichen
durchschnittlicher
durchschnittliches
durchschnitts
durchsetz
durchsetzen
durchsetzt
durchsetzung
durchsicht
durchsichtig
durchsichtige
durchsichtigen
durchsuch
durchsuchen
durchsucht
durchsuchte
durchsuchten
durchsuchung
durchsuchungen
durchwachsene
durchwachsenen
durchweg
durchwegs
durchziehen
durchzieht
durchzogen
durchzuführ
durchzuführen
durchzug
durchzusetz
durchzusetzen
durft
durfte
durften
durst
durststrecke
dusch
duschbad
dusche
duschen
dussel
dustin
dutch
duterte
dutt
dutz
dutzend
dutzende
dutzenden
dv
dvd
dvds
dw
dwd
dwight
dws
dy
dyck
dylan
dynam
dynamik
dynamisch
dynamische
dynamischen
dynamischer
dynamisches
dynamo
dynasti
dynastie
dz
dzeko
dä
dächer
dächern
däm
dämlich
dämme
dämmerte
dämmerung
dämmung
dämon
dämonen
dämpf
dämpfe
dämpfen
dämpfer
dämpft
dämpfte
dän
däne
dänemark
dänemarks
dänen
dänin
dänisch
dänische
dänischen
dänischer
dö
döbeln
döbelner
döner
döpfner
dör
dörf
dörfchen
dörfer
dörfern
dörflichen
döring
dörte
dös
dü
düben
dübener
düfte
dülken
dülkener
dün
düne
dünen
düng
dünger
dünkt
dünkte
dünn
dünne
dünnem
dünnen
dünner
dünnes
dür
düren
dürener
dürer
dürf
dürfe
dürfen
dürft
dürfte
dürften
dürftig
dürftige
dürftigen
dürr
dürre
dürren
dürrenberg
düsseld
düsseldorf
düsseldorfer
düsseldorferin
düsseldorfern
düsseldorfs
düst
düster
düstere
düsteren
düsterer
düsteres
düstern
düsternis
e
ea
eads
eag
eagfl
eagle
eagles
earl
earth
east
eastern
eastwood
easy
easyjet
eb
ebay
ebbe
eben
ebenbürtig
ebenda
ebene
ebenen
ebenerdig
ebenfall
ebenfalls
ebenso
ebensogut
ebensoviel
ebensowenig
eber
eberhard
eberhardt
eberl
eberle
ebersberg
ebersberger
eberswalde
ebert
ebi
ebner
ebnete
ebola
ebt
ec
ecclestone
ech
eching
echo
echt
echte
echtem
echten
echter
echterdings
echtes
echtheit
echtzeit
eck
eckart
eckball
eckdaten
ecke
ecken
eckert
eckhard
eckhardt
eckpfeiler
eckpunkte
eclipse
eco
econom
economic
economics
economy
ecu
ecuador
ecuadorianischen
ecuadors
ed
edathy
edda
eddi
eddie
eddy
edeka
edel
edelmann
edelmetall
edeln
edelstahl
edelsteine
edelsteinen
edelsten
edelweiss
eden
eder
edgar
edge
edi
edin
edinburg
edinburgh
edison
edith
editiert
edition
editionen
editor
edle
edlem
edlen
edler
edles
edm
edmond
edmonton
edmund
edn
edouard
edr
eds
edu
eduard
eduardo
education
edvard
edward
edwards
edwin
ee
eeg
eein
een
eeni
eer
ees
ef
efeu
eff
effekt
effekte
effekten
effektiv
effektive
effektiven
effektiver
effektivität
effektvoll
effenberg
effiz
effizi
effizient
effiziente
effizienten
effizienter
effizientere
effizienz
efn
efo
efs
efsf
eft
efta
eg
egal
egbert
eger
egg
egger
eggert
egk
ego
egoismus
egoist
egoistisch
egon
eh
ehc
ehe
ehebrech
ehebruch
ehedem
ehefrau
ehefrauen
eheg
ehegatt
ehegatten
ehekirchen
ehel
eheleut
eheleute
ehelichen
ehem
ehemal
ehemalige
ehemaligem
ehemaligen
ehemaliger
ehemaliges
ehemals
ehemann
ehemannes
ehemanns
ehemänner
ehen
ehepaar
ehepaare
ehepaares
ehepaars
ehepartner
eher
ehesch
eheschliessung
ehesten
ehf
ehingen
ehning
ehr
ehre
ehren
ehrenamt
ehrenamtler
ehrenamtlich
ehrenamtliche
ehrenamtlichen
ehrenamtlicher
ehrenamtliches
ehrenbürg
ehrenbürger
ehrendo
ehrendoktor
ehrenfeld
ehrengast
ehrengäste
ehrenmal
ehrenmitglied
ehrennadel
ehrenpreis
ehrenpräsident
ehrenrunde
ehrentag
ehrentitel
ehrentreffer
ehrenwert
ehrenzeichen
ehrfurcht
ehrfürcht
ehrgei
ehrgeiz
ehrgeizig
ehrgeizige
ehrgeizigen
ehrgeiziges
ehrhart
ehrhoff
ehrlich
ehrliche
ehrlichen
ehrlicher
ehrliches
ehrlichkeit
ehrt
ehrte
ehrung
ehrungen
ehrwürd
ehrwürdige
ehrwürdigen
ehud
ei
eib
eich
eiche
eichel
eichen
eichhorn
eichhörnchen
eichin
eichinger
eichler
eichmann
eichner
eichstätt
eid
eidgenossen
eidgenossenschaft
eidgenössischen
eien
eier
eiern
eif
eifel
eifer
eifersucht
eifersücht
eifersüchtig
eiffelturm
eifrig
eifrige
eifrigen
eifriger
eiförmig
eig
eigelb
eigen
eigenanteil
eigenart
eigenartige
eigenartigen
eigenbedarf
eigenbetrieb
eigene
eigenem
eigenen
eigener
eigenes
eigenheim
eigenheime
eigenheiten
eigenhändig
eigeninitiative
eigenkapital
eigenleistung
eigenmittel
eigenmächtig
eigenregie
eigens
eigenschaft
eigenschaften
eigensinn
eigenständ
eigenständig
eigenständige
eigenständigen
eigenständiger
eigenständiges
eigenständigkeit
eigent
eigentlich
eigentliche
eigentlichen
eigentlicher
eigentliches
eigentor
eigentum
eigentums
eigentüm
eigentümer
eigentümerin
eigentümern
eigentümers
eigentümlich
eigentümliche
eigentümlichen
eigenverantwortung
eigenwillige
eigenwilligen
eign
eigne
eignen
eigner
eignes
eignet
eignete
eignung
eike
eil
eiland
eilantrag
eile
eileen
eilen
eilenburg
eilenburger
eilends
eilig
eiligen
eiligst
eilt
eilte
eiltempo
eilten
eilverfahren
eimer
eimsbüttel
ein
einand
einander
einar
einb
einbahnstrasse
einbau
einbauen
einbauküche
einbehalt
einberuf
einberufen
einberufenen
einberufung
einbezieh
einbeziehung
einbezog
einbezogen
einbildung
einbildungs
einbinden
einbindung
einblick
einblicke
einbrech
einbrechen
einbrecher
einbrechern
einbring
einbringen
einbruch
einbruchs
einbrüche
einbrüchen
einbuss
einbussen
einbürg
einbürgerung
eind
eindeu
eindeut
eindeutig
eindeutige
eindeutigen
eindeutiger
eindeutiges
eindhoven
eindringen
eindringlich
eindringlichen
eindringling
eindringlinge
eindruck
eindrucks
eindrucksvoll
eindrucksvolle
eindrücke
eindrücken
eindrücklich
eindämmen
eindämmung
eine
eineinhalb
einem
einemmal
einen
einer
einerseit
einerseits
eines
einf
einfach
einfache
einfachen
einfacher
einfachere
einfacheren
einfaches
einfachheit
einfachste
einfachsten
einfahren
einfahrt
einfall
einfallen
einfallsreich
einfallsreichtum
einfalt
einfamilien
einfangen
einfl
einfliessen
einfluss
einflusses
einflussnahme
einflussreich
einflussreiche
einflussreichsten
einflüss
einflüsse
einflüssen
einfrieren
einfuhr
einfuhren
einfälle
einfält
einfühlsam
einfühlungs
einführ
einführen
einführung
eing
eingab
eingabe
eingaben
eingang
eingangs
eingangshalle
eingangstor
eingangstür
eingearbeitet
eingeb
eingebaut
eingebaute
eingebauten
eingebauter
eingeben
eingebettet
eingeborenen
eingebracht
eingebrachten
eingebrochen
eingebund
eingebunden
eingebüsst
eingedrungen
eingedämmt
eingefahren
eingefallen
eingefangen
eingefleischte
eingefordert
eingefroren
eingefunden
eingefügt
eingeführt
eingeführte
eingeführten
eingegang
eingegangen
eingegangenen
eingegeben
eingegliedert
eingegriffen
eingeh
eingehalt
eingehalten
eingehen
eingehend
eingehende
eingehenden
eingehender
eingeholt
eingekauft
eingeklemmt
eingel
eingelad
eingeladen
eingeladenen
eingelagert
eingelass
eingelassen
eingelegt
eingeleitet
eingeleitete
eingeleiteten
eingeliefert
eingeläutet
eingelöst
eingemein
eingemeind
eingemeindet
eingemeindung
eingenomm
eingenommen
eingeordnet
eingepackt
eingeplant
eingerahmt
eingerechnet
eingereicht
eingereichte
eingereichten
eingereist
eingerichtet
eingerichtete
eingerichteten
eingeräum
eingeräumt
eingesammelt
eingesch
eingeschaltet
eingeschlafen
eingeschlag
eingeschlagen
eingeschlagene
eingeschlagenen
eingeschloss
eingeschlossen
eingeschlossenen
eingeschläfert
eingeschrieben
eingeschränkt
eingeschränkte
eingeschränkten
eingeschränkter
eingeschult
eingeschätzt
eingeschüchtert
eingesehen
eingesetzt
eingesetzte
eingesetzten
eingespart
eingespeist
eingesperrt
eingespielt
eingespielte
eingespielten
eingespieltes
eingestehen
eingestellt
eingestellte
eingestellten
eingestiegen
eingestochen
eingestuft
eingestufte
eingestuften
eingeständnis
eingestürzten
eingeteilt
eingetrag
eingetragen
eingetragene
eingetragenen
eingetragener
eingetret
eingetreten
eingetroffen
eingew
eingewechselt
eingewechselte
eingewechselten
eingeweiht
eingeweihte
eingewiesen
eingezahlt
eingezog
eingezogen
eingleisige
eingleisigen
einglieder
eingliederung
eingreifen
eingriff
eingriffe
eingriffen
eingriffs
eingrupp
eingruppier
eingänge
eingängen
einh
einhalt
einhalten
einhaltung
einheim
einheimische
einheimischen
einheimischer
einheit
einheiten
einheitlich
einheitliche
einheitlichen
einheitlicher
einheitliches
einheits
einhellig
einhellige
einher
einhergehende
einhergehenden
einhol
einholen
einhorn
einhundert
einig
einige
einigem
einigen
einiger
einigermassen
einiges
einigkeit
einigte
einigten
einigung
einjahresvertrag
einjährige
einjährigen
einjähriger
einkauf
einkaufen
einkaufs
einkaufsstrasse
einkaufswagen
einkehr
einklang
einkomm
einkommen
einkommens
einkommensteu
einkäufe
einkäufer
einkünft
einkünfte
einkünften
einlad
einladen
einladend
einladung
einladungen
einlag
einlage
einlagen
einlass
einlassen
einlassungen
einlegen
einleit
einleiten
einleitung
einlenken
einliegerwohnung
einlösen
einmal
einmalig
einmalige
einmaligen
einmaliger
einmaliges
einmalzahlung
einmarsch
einmischen
einmischung
einmünd
einmündung
einmütig
einnahm
einnahme
einnahmen
einnahmequelle
einnehm
einnehmen
einordn
einordnen
einordnung
einparkhilfe
einreich
einreichen
einreis
einreise
einreisen
einreiseverbot
einricht
einrichten
einrichtung
einrichtungen
einräumen
eins
einsam
einsame
einsamen
einsamer
einsames
einsamkeit
einsammeln
einsatz
einsatzbereit
einsatzes
einsatzfähig
einsatzgebiet
einsatzkommando
einsatzkräft
einsatzkräfte
einsatzkräften
einsatzleiter
einsatzleitung
einsatzort
einsatzstelle
einsatzwagen
einsatzzeit
einsatzzeiten
einsch
einschalten
einschaltquoten
einschlafen
einschlag
einschlagen
einschliess
einschliesslich
einschlä
einschläg
einschlägig
einschlägige
einschlägigen
einschneidende
einschnitt
einschnitte
einschnitten
einschreiten
einschrumpf
einschränk
einschränken
einschränkung
einschränkungen
einschulung
einschätz
einschätzen
einschätzung
einschätzungen
einschücht
einschüchter
einschüchtern
einschüchternd
einschüchterung
einsehbar
einsehen
einseit
einseitig
einseitige
einseitigen
einsendungen
einsetz
einsetzbar
einsetzen
einsetzende
einsetzenden
einsetzt
einsetzung
einsicht
einsichten
einsiedler
einsink
einspar
einsparen
einsparung
einsparungen
einspringen
einspruch
einsprüche
einspurig
einst
einstand
einstecken
einsteigen
einsteiger
einstein
einsteins
einstell
einstellen
einstelligen
einstellung
einstellungen
einstieg
einstig
einstige
einstigen
einstiger
einstimm
einstimmig
einstimmige
einstimmigen
einstimmung
einstmals
einstuf
einstufung
einsturz
einstwei
einstweil
einstweilen
einstweilige
einstweiligen
einstündige
einstündigen
einstürz
einsätz
einsätze
einsätzen
eint
eintauchen
einteilung
eintracht
eintrag
eintragen
eintragung
eintragungen
eintreffen
eintreffenden
eintret
eintreten
eintritt
eintritts
eintrittskarte
eintrittspreis
einträg
einträge
einträgen
eintön
einv
einvernehm
einvernehmen
einvernehmlich
einvernehmliche
einvernehmlichen
einverstand
einverstanden
einverständnis
einwand
einwander
einwanderer
einwanderern
einwanderung
einwanderungs
einwandfrei
einwandfreie
einwandfreien
einwechselspieler
einwechslung
einwei
einweih
einweihung
einweisung
einwend
einwendungen
einwilligung
einwirken
einwirkung
einwohn
einwohner
einwohnern
einwohnerzahl
einwurf
einwänd
einwände
einwöchige
einwöchigen
einz
einzahlen
einzel
einzelausstellung
einzelbett
einzelfall
einzelfälle
einzelfällen
einzelgänger
einzelhandel
einzelhandels
einzelheiten
einzelhändler
einzelmassnahm
einzeln
einzelne
einzelnen
einzelner
einzelnes
einzelperson
einzelpersonen
einzelrennen
einzelteile
einzeltäter
einzelwertung
einzelzeitfahren
einziehen
einzig
einzigar
einzigart
einzigartig
einzigartige
einzigartigen
einzigartiger
einzigartiges
einzigartigkeit
einzige
einzigen
einziger
einziges
einzu
einzubezieh
einzuf
einzuführ
einzuführen
einzug
einzugehen
einzugsbereich
einzugsgebiet
einzuhalt
einzuhalten
einzul
einzur
einzuricht
einzurichten
einzus
einzuschätzen
einzusetz
einzusetzen
einzustell
einzustellen
einöde
eis
eisbahn
eisberg
eisbrecher
eisbär
eisbären
eiscaf
eisdiele
eisen
eisenach
eisenbahn
eisenbahnen
eisenbahner
eisenbahnlinie
eisenbahnnetz
eisenberg
eisenbichler
eisenhüttenstadt
eisenzeit
eisern
eiserne
eisernen
eiserner
eises
eisfläche
eishalle
eishockey
eisige
eisigen
eisiger
eiskalt
eiskalte
eiskalten
eisleben
eisleber
eisner
eissporthalle
eiszeit
eit
eitel
eitelkeit
eitorf
eiw
eiweiss
eizelle
eizellen
ej
ejf
ek
ekel
ekelerfüllt
ekelerreg
ekkehard
eklat
eklatant
eklatante
eklatanten
ekstase
ekz
el
elan
elb
elbe
elber
elberfeld
elberfelder
elbers
elbphilharmonie
elbvertiefung
ele
eleanor
elect
electric
electronic
electronics
elef
elefant
elefanten
eleg
elegant
elegante
eleganten
eleganter
elegantes
eleganz
elekt
elektr
elektrifizierung
elektrik
elektriker
elektrisch
elektrische
elektrischem
elektrischen
elektrischer
elektrisches
elektriz
elektrizität
elektro
elektroantrieb
elektroauto
elektroautos
elektroden
elektrofahrzeuge
elektrogeräte
elektrom
elektromagnetische
elektromagnetischen
elektromobilität
elektromotor
elektromotoren
elektron
elektronen
elektronik
elektroniker
elektronisch
elektronische
elektronischen
elektronischer
elektronisches
elektrotechn
elektrotechnik
element
elementare
elementaren
elemente
elementen
elena
elend
elende
elenden
eleonore
elf
elfen
elfenbein
elfenbeinküste
elfer
elfi
elfjährige
elfjährigen
elfmet
elfmeter
elfmeterpunkt
elfmeterschiessen
elfriede
elfte
elften
elfter
eli
elia
elias
elis
elisa
elisabeth
elise
elit
elite
eliten
elitären
eliz
elizabeth
elke
ell
ella
ellbogen
elle
ellen
ellenbogen
eller
elli
elliot
elliott
ellis
ellwangen
elmar
elmau
elmshorn
elon
els
elsa
elsass
else
elsner
elst
elster
elstner
elsässer
elt
elten
elterliche
elterlichen
eltern
elternbeiträge
elterngeld
elternhaus
elternschaft
elternteil
elternteile
elternzeit
elton
elvira
elvis
em
email
emails
emanuel
emanzipation
emblem
embryo
embryonalen
embryonen
embryos
emd
emden
emer
emerit
emeritierte
emeritierter
emeritierung
emerson
emery
emi
emig
emigr
emigranten
emigration
emigrierte
emil
emile
emilia
emilie
emilio
emily
eminem
emir
emirat
emirate
emiraten
emirates
emission
emissionen
emissions
emittenten
emm
emma
emman
emmanuel
emmerich
emmericher
emmy
emnid
emo
emojis
emonds
emot
emotion
emotional
emotionale
emotionalen
emotionaler
emotionales
emotionalität
emotionen
emp
empath
empathi
empathie
empf
empfahl
empfahlen
empfand
empfanden
empfang
empfangen
empfangs
empfehl
empfehle
empfehlen
empfehlenswert
empfehlung
empfehlungen
empfiehlt
empfind
empfinde
empfinden
empfindet
empfindlich
empfindliche
empfindlichen
empfindlicher
empfindlichkeit
empfindung
empfindungen
empfing
empfingen
empfohl
empfohlen
empfohlene
empfohlenen
empfund
empfunden
empfundene
empfundenen
empfäng
empfänger
empfängern
empfänglich
empfängt
empir
empire
empirisch
empirische
empirischen
empor
empore
empör
empört
empörte
empörten
empörung
emre
emrk
ems
emsig
emsland
en
enbw
encount
end
endabrechnung
ende
endeffekt
enden
endenden
endergebnis
enders
endes
endet
endete
endeten
endg
endgeräte
endgül
endgült
endgültig
endgültige
endgültigen
endgültiges
endkunden
endlager
endlauf
endlich
endlichen
endlos
endlose
endlosen
endphase
endpunkt
endr
endrund
endrunde
endspiel
endspiele
endspiels
endspurt
endstand
endstation
endung
endverbraucher
enei
ener
energ
energet
energetisch
energetische
energetischen
energi
energie
energieausweis
energiebedarf
energieeffizienz
energiegelad
energiekonzern
energiekosten
energielos
energien
energiepolitik
energiepreise
energiequelle
energiequellen
energiesparen
energieträger
energieverbrauchs
energiewende
energisch
energische
energischen
energischer
energy
enev
eng
enga
engag
engagement
engagements
engagi
engagieren
engagiert
engagierte
engagierten
engagierter
enge
engel
engelbert
engelhardt
engelke
engelmann
engeln
engels
engelskirchen
engem
engen
enger
engere
engeren
enges
engin
engine
engineer
engineering
engl
england
englands
engler
englisch
englische
englischem
englischen
englischer
englisches
englischsprachige
englischsprachigen
english
engländ
engländer
engländerin
engländern
engpass
engpässe
engpässen
engste
engstem
engsten
engster
engstirn
eni
enke
enkel
enkelin
enkelkinder
enkeln
enklave
enn
enno
enor
enorm
enorme
enormem
enormen
enormer
enormes
enrico
enrique
ens
enschede
ensembl
ensemble
ensembles
ent
entbehr
entbehren
entbehrt
entbehrungen
entbehrungsreich
entbind
entbindung
entblösst
entbrannte
entbunden
entdeck
entdecken
entdecker
entdeckt
entdeckte
entdeckten
entdeckung
entdeckungen
entdeckungs
ente
enteignet
enteignung
enteignungen
enten
enterpris
enterprise
entert
entertainer
entertainment
entf
entfacht
entfachte
entfall
entfallen
entfalt
entfalten
entfaltet
entfaltete
entfaltung
entfern
entfernen
entfernt
entfernte
entfernten
entfernter
entferntesten
entfernung
entfernungen
entfiel
entfielen
entfliehen
entfremd
entfremdung
entfällt
entführ
entführen
entführer
entführt
entführte
entführten
entführung
entführungen
entgangen
entgeg
entgegen
entgegengebracht
entgegengesetzt
entgegengesetzte
entgegengesetzten
entgegengesetzter
entgegenkommen
entgegensteh
entgegnet
entgegnete
entgeh
entgehen
entgeht
entgelt
entgelte
entgeltgrupp
entging
entgleisung
entgleisungen
entgleit
enthalt
enthalte
enthalten
enthaltene
enthaltenen
enthaltung
enthaltungen
enthaupt
enthauptung
enthielt
enthielten
enthoben
enthusiasmus
enthusiast
enthusiastisch
enthält
enthü
enthüll
enthüllen
enthüllt
enthüllte
enthüllung
enthüllungen
enthüllungs
entkam
entkamen
entkomm
entkommen
entkräft
entkräftet
entladen
entlang
entlarvt
entlass
entlassen
entlassene
entlassenen
entlassung
entlassungen
entlast
entlasten
entlastet
entlastung
entlastungen
entlegenen
entliess
entlohn
entlohnt
entlohnung
entlässt
entmachtung
entmut
entmutigt
entnahm
entnahme
entnehm
entnehmen
entnervt
entnomm
entnommen
entourage
entpuppt
entpuppte
entricht
entrichten
entrissen
entry
enträtseln
entrüst
entrüstet
entrüstung
entsandt
entsandte
entscheid
entscheide
entscheiden
entscheidend
entscheidende
entscheidenden
entscheidender
entscheidendes
entscheider
entscheidet
entscheidung
entscheidungen
entscheidungs
entscheidungsfindung
entschied
entschieden
entschiedene
entschiedenen
entschiedener
entschliess
entschliessen
entschliesst
entschliessung
entschloss
entschlossen
entschlossene
entschlossenen
entschlossener
entschlossenheit
entschluss
entschlüssel
entschlüsseln
entschlüsselung
entschul
entschuld
entschuldige
entschuldigen
entschuldigt
entschuldigte
entschuldigung
entschuldigungen
entschwind
entschä
entschäd
entschädigt
entschädigung
entschädigungs
entschärfen
entschärft
entschärfte
entschärfung
entsenden
entsendet
entsendung
entsetz
entsetzen
entsetzlich
entsetzliche
entsetzlichen
entsetzt
entsorgen
entsorgt
entsorgung
entsp
entspann
entspannen
entspannt
entspannte
entspannten
entspannter
entspanntes
entspannung
entspr
entsprach
entsprachen
entsprech
entspreche
entsprechen
entsprechend
entsprechende
entsprechendem
entsprechenden
entsprechender
entsprechendes
entsprechung
entspricht
entspringen
entspringt
entsproch
entsprochen
entspräche
entst
entstamm
entstammen
entstammt
entstammte
entstand
entstanden
entstandene
entstandenen
entsteh
entstehe
entstehen
entstehende
entstehenden
entsteht
entstehung
entstehungs
entstünden
entt
enttarnt
enttäu
enttäusch
enttäuschend
enttäuschende
enttäuschenden
enttäuscht
enttäuschte
enttäuschten
enttäuschter
enttäuschung
enttäuschungen
entw
entwaffnung
entwarf
entwarnung
entwed
entweder
entweichen
entwendet
entwendete
entwendeten
entwerfen
entwick
entwickeln
entwickelnden
entwickelt
entwickelte
entwickelten
entwickelter
entwickeltes
entwickelung
entwickl
entwickle
entwickler
entwicklern
entwicklung
entwicklungen
entwicklungs
entwirft
entwirr
entworf
entworfen
entworfene
entworfenen
entwurf
entwurfs
entwäss
entwässert
entwässerung
entwürd
entwürf
entwürfe
entwürfen
entz
entzieh
entziehen
entzieht
entzog
entzogen
entzug
entzück
entzücken
entzückt
entzünden
entzündet
entzündete
entzündeten
entzündung
entzündungen
enz
enzo
enzy
enzyklopädie
enzym
enzyme
eo
eon
eos
ep
epa
ephraim
epic
epidemi
epidemie
epilepsie
epis
epischen
episod
episode
episoden
epitaph
epizentrum
epoch
epochal
epoche
epochen
epos
eppendorf
epstein
epü
eq
equ
equipe
equipment
equity
er
eracht
erachtens
erachtet
erahnen
erarbeit
erarbeiten
erarbeitet
erarbeitete
erarbeiteten
erarbeitung
erasmus
erb
erbarmen
erbarmungslos
erbauen
erbauer
erbaut
erbaute
erbauten
erbauung
erbe
erben
erbes
erbeutet
erbeutete
erbeuteten
erbfolg
erbfolge
erbfolgekrieg
erbgut
erbil
erbin
erbittert
erbitterte
erbitterten
erbitterter
erbittet
erbl
erblass
erblichen
erblicken
erblickt
erblickte
erblickten
erbost
erbr
erbracht
erbrachte
erbrachten
erbrech
erbrechen
erbrecht
erbring
erbringen
erbs
erbschaft
erbschafts
erbsen
erbt
erbte
erbärm
erbärmlich
erbärmlichen
erc
erd
erdarbeiten
erdatmosphäre
erdb
erdball
erdbeb
erdbeben
erdbebens
erdbeeren
erdboden
erde
erden
erdenklichen
erderwärmung
erdgas
erdgeschoss
erding
erdinger
erdmann
erdoan
erdoberfläche
erdogan
erdogans
erdreich
erdrutsch
erdrutsche
erdrück
erdöl
ereig
ereignen
ereignet
ereignete
ereigneten
ereignis
ereignisse
ereignissen
ereignisses
ereilte
eren
erf
erfahr
erfahre
erfahren
erfahrene
erfahrenen
erfahrener
erfahrt
erfahrung
erfahrungen
erfahrungs
erfand
erfass
erfassen
erfasst
erfasste
erfassten
erfassung
erfind
erfinden
erfinder
erfindet
erfindung
erfindungen
erfol
erfolg
erfolge
erfolgen
erfolges
erfolglos
erfolglose
erfolglosen
erfolglosigkeit
erfolgreich
erfolgreiche
erfolgreichem
erfolgreichen
erfolgreicher
erfolgreiches
erfolgreichste
erfolgreichsten
erfolgreichster
erfolgs
erfolgscoach
erfolgsfall
erfolgsmodell
erfolgsrezept
erfolgsserie
erfolgsspur
erfolgstrainer
erfolgt
erfolgte
erfolgten
erfolgter
erfor
erford
erfordere
erforderlich
erforderliche
erforderlichen
erfordern
erfordernis
erfordernisse
erfordernissen
erfordert
erforderte
erforsch
erforschen
erforscht
erforschte
erforschung
erfr
erfreu
erfreuen
erfreulich
erfreuliche
erfreulichen
erfreut
erfreute
erfreuten
erfrisch
erfrischend
erfrischende
erfrischenden
erfrischt
erfrischung
erft
erftstadt
erfuhr
erfuhren
erfund
erfunden
erfundene
erfundenen
erfurt
erfurter
erfährst
erfährt
erfü
erfüll
erfülle
erfüllen
erfüllt
erfüllte
erfüllten
erfüllung
erg
ergab
ergaben
ergang
ergangen
ergattern
ergaun
ergeb
ergebe
ergeben
ergebenden
ergebnis
ergebnislos
ergebnisreich
ergebnisse
ergebnissen
ergebnisses
ergehen
ergeht
ergibt
ergieb
erging
ergo
ergreif
ergreifen
ergreifend
ergreift
ergreifung
ergriff
ergriffen
ergän
ergänz
ergänzen
ergänzend
ergänzende
ergänzenden
ergänzt
ergänzte
ergänzten
ergänzung
ergänzungen
erh
erhaben
erhabene
erhabenen
erhalt
erhalte
erhalten
erhaltene
erhaltenen
erhaltener
erhaltenes
erhaltung
erhard
erheb
erheben
erheblich
erhebliche
erheblichem
erheblichen
erheblicher
erhebliches
erhebt
erhebung
erhebungen
erheitert
erhellt
erhielt
erhielten
erhitzen
erhitzt
erhob
erhoben
erhobene
erhobenem
erhobenen
erhoff
erhoffe
erhoffen
erhofft
erhoffte
erhofften
erhol
erholen
erholsam
erholt
erholte
erholten
erholung
erhält
erhältlich
erhältliche
erhältlichen
erhö
erhöh
erhöhe
erhöhen
erhöht
erhöhte
erhöhtem
erhöhten
erhöhter
erhöhtes
erhöhung
erhöhungen
eric
erich
ericsson
erik
erika
eriksson
erinn
erinner
erinnere
erinnern
erinnernden
erinnert
erinnerte
erinnerten
erinnerung
erinnerungen
eritrea
erk
erkannt
erkannte
erkannten
erkauft
erkelenz
erkelenzer
erkenn
erkennbar
erkennbare
erkennbaren
erkenne
erkennen
erkennt
erkenntnis
erkenntnisse
erkenntnissen
erkennung
erker
erkl
erklang
erklangen
erklimm
erklingen
erklingt
erklär
erkläre
erklären
erklärt
erklärte
erklärten
erklärter
erklärtes
erklärung
erklärungen
erkran
erkrank
erkranken
erkrankt
erkrankte
erkrankten
erkrankung
erkrankungen
erkrath
erkrather
erkund
erkunden
erkundet
erkundigen
erkundigt
erkundigte
erkundigungen
erkundung
erkältung
erkältungen
erkämpft
erkämpfte
erkämpften
erl
erlag
erlang
erlangen
erlanger
erlangt
erlangte
erlangten
erlangung
erlass
erlassen
erlassene
erlassenen
erlaub
erlaube
erlauben
erlaubnis
erlaubt
erlaubte
erlaubten
erleb
erlebbar
erlebe
erleben
erlebnis
erlebnisse
erlebnissen
erlebt
erlebte
erlebten
erled
erledigen
erledigt
erledigte
erledigung
erlegen
erlegt
erleich
erleicht
erleichter
erleichtern
erleichtert
erleichterte
erleichterung
erleichterungen
erleid
erleiden
erleidet
erler
erlernen
erlernt
erlernte
erlernten
erleucht
erleuchtet
erleuchteten
erleuchtung
erlieg
erliegen
erliess
erlischt
erlitt
erlitten
erlittene
erlittenen
erlo
erlosch
erloschen
erlä
erläu
erläut
erläuter
erläutern
erläutert
erläuterte
erläuterten
erläuterung
erläuterungen
erlös
erlöse
erlösen
erlösende
erlöst
erlöste
erlösung
erm
ermahn
ermahnt
ermahnte
ermahnung
ermahnungen
ermangelung
ermess
ermessen
ermitt
ermittel
ermitteln
ermittelnden
ermittelt
ermittelte
ermittelten
ermittl
ermittler
ermittlern
ermittlung
ermittlungen
ermittlungs
ermittlungstaktischen
ermor
ermord
ermorden
ermordet
ermordete
ermordeten
ermordung
ermu
ermunternd
ermuntert
ermunterte
ermut
ermutigt
ermutigte
ermächt
ermässigt
ermässigten
ermög
ermögliche
ermöglichen
ermöglicht
ermöglichte
ermöglichten
ermüd
ermüdet
ermüdung
ern
erna
ernannt
ernannte
ernannten
ernenn
ernennung
ernest
ernesto
erneu
erneuer
erneuerbare
erneuerbaren
erneuerbarer
erneuern
erneuert
erneuerte
erneuerten
erneuerung
erneut
erneute
erneuten
erneuter
erneutes
ernie
erniedr
erniedrigung
ernst
ernste
ernstem
ernsten
ernster
ernstes
ernstfall
ernsthaft
ernsthafte
ernsthaften
ernsthafter
ernsthaftes
ernsthaftigkeit
ernstlich
ernstzunehmende
ernt
ernte
ernten
erntet
erntete
ernähr
ernähren
ernährt
ernährung
ernüchter
ernüchternd
ernüchternde
ernüchternden
ernüchtert
ernüchterung
ero
erob
erober
eroberer
erobern
erobert
eroberte
eroberten
eroberung
eroberungen
eros
erosion
erotik
erotische
erotischen
erpress
erpressen
erpresser
erpresst
erpressung
erprobt
erprobte
erprobten
erprobung
err
errang
errangen
erraten
errech
errechnet
errechnete
errechneten
erregen
erregenden
erreger
erregt
erregte
erregten
erregung
erreich
erreichbar
erreichbare
erreichbaren
erreichbarkeit
erreiche
erreichen
erreicht
erreichte
erreichten
erreichung
errich
erricht
errichten
errichtet
errichtete
errichteten
errichtetes
errichtung
erringen
errungen
errungenschaft
errungenschaften
errötete
ersatz
ersatzbank
ersatzgeschwächten
ersatzlos
ersatzmann
ersatzspieler
ersatzteile
ersch
erschaff
erschaffen
erschaffung
erschein
erscheine
erscheinen
erscheinende
erscheinenden
erscheint
erscheinung
erscheinungen
erscheinungs
erschi
erschien
erschienen
erschienene
erschienenen
erschienenes
erschiess
erschiessen
erschiesst
erschiessung
erschlaff
erschlag
erschlagen
erschliess
erschliessen
erschliesst
erschliessung
erschloss
erschlossen
erscholl
erschoss
erschossen
erschossenen
erschrak
erschreck
erschrecken
erschreckend
erschreckende
erschreckenden
erschreckt
erschreckte
erschrock
erschrocken
erschw
erschweren
erschwerend
erschwert
erschwerte
erschwerten
erschwinglich
erschöpf
erschöpft
erschöpfte
erschöpften
erschöpfung
erschütt
erschütter
erschüttern
erschütternd
erschütternde
erschütternden
erschüttert
erschütterte
erschütterten
erschütterung
erschütterungen
ersehnte
ersehnten
ersetz
ersetzen
ersetzt
ersetzte
ersetzten
ersicht
ersichtlich
ersparen
ersparnis
ersparnisse
erspart
erspartes
erspielte
erspielten
erspriess
erst
erstanden
erstarken
erstarrt
erstatt
erstatten
erstattet
erstattete
erstattung
erstaufführung
erstaufnahmeeinrichtung
erstaun
erstaunen
erstaunlich
erstaunliche
erstaunlichen
erstaunlicher
erstaunlicherweise
erstaunt
erstaunte
erstaunten
erstaus
erstbezug
erste
erstech
ersteigert
erstell
erstellen
erstellt
erstellte
erstellten
erstellung
erstem
ersten
erstenmal
erstens
erster
erstere
ersteren
ersteres
erstes
erstflug
ersthelfer
erstick
ersticken
erstickt
erstickte
erstinstanz
erstklass
erstklassig
erstklassige
erstklassigen
erstklässler
erstligist
erstligisten
erstmal
erstmalig
erstmalige
erstmaligen
erstmals
erstochen
erstplatzierten
erstr
erstrahlen
erstrahlt
erstrang
erstrebenswert
erstreck
erstrecken
erstreckt
erstreckte
erstversorgung
erstzulassung
erstürmung
ersuchen
ersuchte
ert
ertappt
erteil
erteilen
erteilt
erteilte
erteilten
erteilung
ertl
ertrag
ertragen
ertragreich
ertrink
ertrinken
ertrug
ertrunken
erträg
erträge
erträgen
erträglich
erträgt
ertönt
ertönte
eruption
erw
erwachen
erwachs
erwachsen
erwachsene
erwachsenen
erwachsener
erwacht
erwachte
erwar
erwarb
erwarben
erwart
erwarte
erwarten
erwartende
erwartenden
erwartet
erwartete
erwarteten
erwartung
erwartungen
erwartungs
erwartungsvoll
erwecken
erweckt
erweckte
erwei
erweis
erweisen
erweist
erweit
erweiter
erweitern
erweitert
erweiterte
erweiterten
erweitertes
erweiterung
erweiterungen
erweiterungs
erwerb
erwerben
erwerber
erwerbs
erwerbslosen
erwerbsm
erwerbstätige
erwerbstätigen
erwi
erwidert
erwiderte
erwiderung
erwiederte
erwies
erwiesen
erwin
erwirbt
erwirkte
erwirtschaften
erwirtschaftet
erwirtschaftete
erwirtschafteten
erwischen
erwischt
erwischte
erwischten
erwogen
erworb
erworben
erworbene
erworbenen
erwä
erwäg
erwägen
erwägt
erwägung
erwägungen
erwähn
erwähnen
erwähnt
erwähnte
erwähnten
erwähnung
erwärmen
erwärmt
erwärmung
erwünscht
erwünschte
erwünschten
erwürg
erwürgt
erz
erzb
erzbischof
erzbischofs
erzbistum
erzbistums
erzdiözese
erzengel
erzeu
erzeug
erzeugen
erzeuger
erzeugnis
erzeugnisse
erzeugt
erzeugte
erzeugten
erzeugung
erzfeind
erzgebirge
erzherzog
erzieh
erziehen
erziehende
erzieher
erzieherin
erzieherinnen
erziehern
erziehung
erziehungsberechtigten
erziel
erzielen
erzielt
erzielte
erzielten
erzogen
erzrivale
erzrivalen
erzwang
erzwingen
erzwungen
erzwungene
erzwungenen
erzähl
erzähle
erzählen
erzähler
erzählt
erzählte
erzählten
erzählung
erzählungen
erzürnt
eröff
eröffn
eröffnen
eröffnet
eröffnete
eröffneten
eröffnung
eröffnungs
eröffnungsrede
eröffnungstag
erör
erört
erörter
erörtert
erörterung
es
esa
esc
esch
eschwege
eschweiler
esd
esel
esi
eskal
eskalation
eskalieren
eskalierenden
eskaliert
eskalierte
eskapaden
esm
esp
espanyol
espresso
esprit
ess
essay
essays
essbereich
esse
essen
essener
essens
essenz
esser
essig
esslingen
esslöffel
esstisch
esszimmer
est
establishment
estadio
estate
esteban
estg
esther
estland
estnische
estnischen
esv
et
eta
etabl
etabli
etablieren
etabliert
etablierte
etablierten
etablierter
etablierung
etag
etage
etagen
etagenwohnung
etapp
etappe
etappen
etappensieg
etat
etats
etc
etf
etfs
eth
ethan
ethanol
ethik
ethisch
ethische
ethischen
ethn
ethnie
ethnien
ethnisch
ethnische
ethnischen
ethnischer
etienne
etihad
etik
etikett
etikette
etiketten
etlich
etliche
etlichen
etlicher
etw
etwa
etwaig
etwaige
etwaigen
etwas
eu
euch
euer
euern
eug
eugen
eugene
eugenie
eugh
eugne
eul
eule
eulen
euler
euphor
euphorie
euphorisch
euphrat
eur
euratom
eure
eurem
euren
eurer
eures
euro
eurofighter
eurogruppe
eurojackpot
eurokrise
eurokurs
euroleague
euroländer
europ
europa
europacup
europameist
europameister
europap
europapokal
europapolitik
europarat
europas
europastrasse
europawahl
europawahlen
europaweit
europaweite
europaweiten
europe
european
europol
europä
europäer
europäern
europäisch
europäische
europäischem
europäischen
europäischer
europäisches
euroraum
euros
eurosport
eurostat
eurostoxx
eurovision
eurowings
eurozon
eurozone
eurp
euskirchen
euskirchener
ev
eva
evaku
evakuiert
evakuierung
evalu
evaluation
evan
evangel
evangelisch
evangelische
evangelischen
evangelischer
evangelisten
evangelium
evans
eve
eveline
evelyn
event
events
eventuell
eventuelle
eventuellen
ever
everest
evers
everton
every
evg
evi
evo
evolution
evolutions
evolutionäre
evonik
evp
ew
ewa
ewald
ewe
ewg
ewi
ewig
ewige
ewigen
ewiger
ewiges
ewigkeit
ewigkeiten
ewr
ex
exakt
exakte
exakten
examen
examinierte
exchange
executive
exeku
exekut
exekution
exekutiv
exekutive
exempel
exempl
exemplar
exemplare
exemplaren
exemplarisch
exil
exist
existenz
existenzbedro
existenzbedroh
existenzielle
existenziellen
existi
existiere
existieren
existierende
existierenden
existiert
existierte
existierten
exklave
exklus
exklusiv
exklusive
exklusiven
exklusiver
exklusives
exklusivität
exkursion
exkursionen
exo
exodus
exoplaneten
exorbitant
exot
exoten
exotisch
exotische
exotischen
exp
expan
expansion
expedition
expeditionen
experim
experiment
experimente
experimentell
experimentelle
experimentellen
experimenten
experimentieren
experimentiert
experimentierte
experiments
expert
experte
experten
expertengruppe
expertin
expertis
expertise
expl
expliz
explizit
explizite
explod
explodi
explodieren
explodierenden
explodiert
explodierte
explodierten
explorer
explos
explosion
explosionen
explosiv
explosive
explosiven
expo
expon
exponate
exponaten
exponiert
exponierten
export
exporte
exporteure
exportieren
exportiert
expos
exposition
exposs
express
expressionismus
exquisit
ext
extern
externe
externen
externer
externes
extr
extra
extras
extravagant
extravagante
extravaganten
extrem
extreme
extremen
extremer
extremfall
extremismus
extremisten
extremistische
extremistischen
exxon
exzell
exzellent
exzellente
exzellenten
exzellenter
exzellenz
exzentrische
exzentrischen
exzesse
exzessive
exzessiven
ey
eye
ez
ezb
f
fa
faa
fab
fabel
fabelhaft
fabelhafte
fabelhaften
faber
fabia
fabian
fabienne
fabio
fabius
fabrice
fabrik
fabrikanten
fabriken
fac
face
facebook
facebooks
facebookseite
facelift
facetten
fach
fachanwalt
facharbeiter
facharzt
fachausschuss
fachbereich
fachbereiche
fachbereichen
fachbereichs
fachblatt
fachgebiet
fachgerecht
fachgruppe
fachhandel
fachhochschul
fachhochschule
fachjournal
fachkraft
fachkreisen
fachkräft
fachkräfte
fachkräften
fachleut
fachleute
fachleuten
fachlich
fachliche
fachlichen
fachlicher
fachliteratur
fachmagazin
fachmagazins
fachmann
fachmesse
fachpersonal
fachrichtung
fachrichtungen
fachschule
fachstelle
fachtagung
fachverband
fachwelt
fachwerk
fachwerkhaus
fachwissen
fachärzte
fachärzten
fackel
fackeln
facto
factor
factory
fad
faden
fadenkreuz
fadenschein
fahn
fahnden
fahnder
fahndet
fahndung
fahne
fahnen
fahnenträger
fahr
fahranfänger
fahrbahn
fahrbahndecke
fahrbahnen
fahrbahnrand
fahrbereit
fahrdienst
fahrdienstleiter
fahre
fahren
fahrende
fahrenden
fahrender
fahrens
fahrenschon
fahrer
fahrerflucht
fahrerin
fahrerlager
fahrerlaubnis
fahrern
fahrers
fahrerseite
fahrersitz
fahrfehler
fahrgast
fahrgastzahlen
fahrgeschäfte
fahrgestell
fahrgäst
fahrgäste
fahrgästen
fahrkarte
fahrkarten
fahrlehrer
fahrleistungen
fahrläss
fahrlässig
fahrlässige
fahrlässigen
fahrlässiger
fahrlässigkeit
fahrminuten
fahrplan
fahrpläne
fahrrad
fahrradfahren
fahrradfahrer
fahrräd
fahrräder
fahrrädern
fahrschule
fahrspass
fahrspur
fahrspuren
fahrstil
fahrstreifen
fahrstuhl
fahrt
fahrten
fahrtkosten
fahrtrichtung
fahrtzeit
fahrverbot
fahrverbote
fahrverboten
fahrverhalten
fahrwasser
fahrweise
fahrwerk
fahrzeit
fahrzeiten
fahrzeug
fahrzeugart
fahrzeuge
fahrzeugen
fahrzeuges
fahrzeugführer
fahrzeughalter
fahrzeugs
faible
fair
faire
fairen
fairer
faires
fairness
fak
fake
fakt
fakten
faktisch
faktische
faktischen
faktor
faktoren
fakult
fakultät
fakultäten
fal
falcon
falk
falke
falken
falkenberg
falkensee
falkenseer
falkenstein
falko
fall
falle
fallen
fallende
fallenden
falles
falls
fallschirm
falludscha
fallzahlen
falsch
falschaussage
falsche
falschem
falschen
falscher
falsches
falschgeld
falschparker
falten
falter
faltete
falun
fam
fame
famfg
famil
famili
familie
familien
familienbesitz
familiendrama
familienfest
familienfreundliche
familiengrösse
familienhaus
familienkreis
familienleben
familiennachzug
familiennam
familienname
familiennamen
familientag
familienvater
familiär
familiäre
familiären
familiärer
family
famos
famosen
famrz
fan
fanatiker
fanatischen
fanatismus
fanclub
fand
fanden
fang
fange
fangemeinde
fangen
fanmeile
fanny
fans
fantas
fantasi
fantasie
fantasien
fantasievoll
fantast
fantastisch
fantastische
fantastischen
fantastischer
fantastisches
fantasy
far
farage
farb
farbe
farben
farbenfrohe
farbenfrohen
farbgebung
farbig
farbige
farbigen
farblich
farblos
farbton
farc
farce
farfan
farid
farm
farmen
farmer
farmteam
fas
fasch
fasching
faschismus
faschist
faschisten
faschistische
faschistischen
fasern
fashion
faso
fass
fassad
fassade
fassaden
fassbender
fassbinder
fasse
fassen
fassende
fassenden
fasst
fasste
fassten
fassung
fassungen
fassungs
fassungslos
fassungslosigkeit
fast
fasten
fastenzeit
faszin
faszination
faszini
faszinier
faszinieren
faszinierend
faszinierende
faszinierenden
fasziniert
faszinierte
fat
fatah
fatal
fatale
fatalen
fataler
fatih
fau
faul
faule
faulen
fauler
faulheit
fauna
faust
faustregel
faustschlag
fauxpas
favor
favorisi
favorisiert
favorisierte
favorisierten
favorit
favoriten
favoritenrolle
favoritin
favre
fax
faymann
faz
fazit
fbi
fc
fca
fcb
fcc
fci
fck
fcm
fcr
fd
fda
fdlr
fdp
fe
feature
features
feb
februar
february
fechter
fed
feder
federal
federation
federer
federführend
federführung
federica
federico
federn
federung
fee
feed
feedback
fegt
fegte
feh
fehd
fehde
fehl
fehlanzeig
fehlbetrag
fehle
fehlen
fehlend
fehlende
fehlendem
fehlenden
fehlender
fehlendes
fehler
fehleranfäll
fehlerfrei
fehlerfreien
fehlerhaft
fehlerhafte
fehlerhaften
fehlermeld
fehlern
fehlerquote
fehlers
fehlkauf
fehlleist
fehlpass
fehlstart
fehlt
fehlte
fehlten
fehltritt
fehlverhalt
fehlverhalten
fehmarn
fei
feier
feierabend
feierlich
feierliche
feierlichen
feierlicher
feierlichkeit
feierlichkeiten
feiern
feierstunde
feiert
feiertag
feiertage
feiertagen
feierte
feierten
feig
feige
feigen
feigheit
feigling
fein
feind
feindbild
feinde
feinden
feindes
feindlich
feindliche
feindlichen
feindlicher
feindschaft
feindsel
feindseligkeit
feindseligkeiten
feine
feinem
feinen
feiner
feines
feinheit
feinheiten
feinschliff
feinschmecker
feinsinn
feinstaub
feinste
feinsten
feinunze
fel
feld
feldberg
felde
felder
feldern
feldes
feldherr
feldherrn
feldmann
feldmarschall
feldspieler
feldweg
feldzug
felgen
felicitas
felipe
felix
fell
felle
fellow
fels
felsen
felsigen
felswand
femal
feminismus
feministin
feministinnen
feministische
feministischen
fen
fendt
fenerbahce
fenst
fenster
fensterfront
fensterheber
fenstern
fensters
fensterscheibe
fer
ferber
ferdinand
ferenc
ferguson
feri
ferien
ferienhaus
ferienhäus
ferieninsel
[...]
